# Gesture recognition. Model traind in google colab
unsigned char model_tflite[] = {
  0x1c, 0x00, 0x00, 0x00, 0x54, 0x46, 0x4c, 0x33, 0x00, 0x00, 0x12, 0x00,
  0x1c, 0x00, 0x04, 0x00, 0x08, 0x00, 0x0c, 0x00, 0x10, 0x00, 0x14, 0x00,
  0x00, 0x00, 0x18, 0x00, 0x12, 0x00, 0x00, 0x00, 0x03, 0x00, 0x00, 0x00,
  0x14, 0x00, 0x00, 0x00, 0x28, 0x00, 0x00, 0x00, 0xd0, 0x00, 0x00, 0x00,
  0x28, 0x00, 0x00, 0x00, 0x78, 0x00, 0x00, 0x00, 0x05, 0x00, 0x00, 0x00,
  0xe0, 0x06, 0x00, 0x00, 0x00, 0x06, 0x00, 0x00, 0x7c, 0x03, 0x00, 0x00,
  0xd4, 0x02, 0x00, 0x00, 0xa8, 0x01, 0x00, 0x00, 0x01, 0x00, 0x00, 0x00,
  0xcc, 0x00, 0x00, 0x00, 0x14, 0x00, 0x00, 0x00, 0x90, 0x4e, 0x00, 0x00,
  0x8c, 0x4e, 0x00, 0x00, 0x84, 0x4d, 0x00, 0x00, 0xd0, 0x4c, 0x00, 0x00,
  0x28, 0x4c, 0x00, 0x00, 0xb0, 0x4b, 0x00, 0x00, 0x44, 0x4b, 0x00, 0x00,
  0xf4, 0x12, 0x00, 0x00, 0xa0, 0x11, 0x00, 0x00, 0xc4, 0x0f, 0x00, 0x00,
  0x68, 0x07, 0x00, 0x00, 0x64, 0x4e, 0x00, 0x00, 0x60, 0x4e, 0x00, 0x00,
  0x5c, 0x4e, 0x00, 0x00, 0x58, 0x4e, 0x00, 0x00, 0x54, 0x4e, 0x00, 0x00,
  0x50, 0x4e, 0x00, 0x00, 0x4c, 0x4e, 0x00, 0x00, 0x48, 0x4e, 0x00, 0x00,
  0x38, 0x00, 0x00, 0x00, 0x01, 0x00, 0x00, 0x00, 0x0c, 0x00, 0x00, 0x00,
  0x08, 0x00, 0x0c, 0x00, 0x04, 0x00, 0x08, 0x00, 0x08, 0x00, 0x00, 0x00,
  0x08, 0x00, 0x00, 0x00, 0x13, 0x00, 0x00, 0x00, 0x13, 0x00, 0x00, 0x00,
  0x6d, 0x69, 0x6e, 0x5f, 0x72, 0x75, 0x6e, 0x74, 0x69, 0x6d, 0x65, 0x5f,
  0x76, 0x65, 0x72, 0x73, 0x69, 0x6f, 0x6e, 0x00, 0xfe, 0xb2, 0xff, 0xff,
  0x04, 0x00, 0x00, 0x00, 0x10, 0x00, 0x00, 0x00, 0x31, 0x2e, 0x35, 0x2e,
  0x30, 0x00, 0x00, 0x00, 0x00, 0x00, 0x00, 0x00, 0x00, 0x00, 0x00, 0x00,
  0x0f, 0x00, 0x00, 0x00, 0x4d, 0x4c, 0x49, 0x52, 0x20, 0x43, 0x6f, 0x6e,
  0x76, 0x65, 0x72, 0x74, 0x65, 0x64, 0x2e, 0x00, 0x00, 0x00, 0x0e, 0x00,
  0x18, 0x00, 0x04, 0x00, 0x08, 0x00, 0x0c, 0x00, 0x10, 0x00, 0x14, 0x00,
  0x0e, 0x00, 0x00, 0x00, 0x14, 0x00, 0x00, 0x00, 0x5c, 0x00, 0x00, 0x00,
  0x60, 0x00, 0x00, 0x00, 0x64, 0x00, 0x00, 0x00, 0x84, 0x00, 0x00, 0x00,
  0x12, 0x00, 0x00, 0x00, 0x54, 0x4d, 0x00, 0x00, 0xe4, 0x4c, 0x00, 0x00,
  0x40, 0x4c, 0x00, 0x00, 0x98, 0x4b, 0x00, 0x00, 0xf0, 0x4a, 0x00, 0x00,
  0x8c, 0x4a, 0x00, 0x00, 0x24, 0x4a, 0x00, 0x00, 0xd0, 0x11, 0x00, 0x00,
  0x74, 0x10, 0x00, 0x00, 0x98, 0x0e, 0x00, 0x00, 0xc4, 0x05, 0x00, 0x00,
  0xe4, 0x04, 0x00, 0x00, 0xa8, 0x03, 0x00, 0x00, 0xfc, 0x02, 0x00, 0x00,
  0x58, 0x02, 0x00, 0x00, 0xb0, 0x01, 0x00, 0x00, 0x0c, 0x01, 0x00, 0x00,
  0x80, 0x00, 0x00, 0x00, 0x01, 0x00, 0x00, 0x00, 0x00, 0x00, 0x00, 0x00,
  0x01, 0x00, 0x00, 0x00, 0x11, 0x00, 0x00, 0x00, 0x08, 0x00, 0x00, 0x00,
  0x30, 0x05, 0x00, 0x00, 0x54, 0x04, 0x00, 0x00, 0x38, 0x03, 0x00, 0x00,
  0x7c, 0x02, 0x00, 0x00, 0xf4, 0x01, 0x00, 0x00, 0x30, 0x01, 0x00, 0x00,
  0xa4, 0x00, 0x00, 0x00, 0x10, 0x00, 0x00, 0x00, 0x04, 0x00, 0x00, 0x00,
  0x6d, 0x61, 0x69, 0x6e, 0x00, 0x00, 0x00, 0x00, 0x7e, 0xff, 0xff, 0xff,
  0x00, 0x00, 0x00, 0x09, 0x04, 0x00, 0x00, 0x00, 0x1c, 0x00, 0x00, 0x00,
  0x10, 0x00, 0x00, 0x00, 0x04, 0x00, 0x00, 0x00, 0xfa, 0xb3, 0xff, 0xff,
  0x00, 0x00, 0x80, 0x3f, 0x01, 0x00, 0x00, 0x00, 0x11, 0x00, 0x00, 0x00,
  0x01, 0x00, 0x00, 0x00, 0x10, 0x00, 0x00, 0x00, 0xe2, 0xfa, 0xff, 0xff,
  0x00, 0x00, 0x00, 0x19, 0x01, 0x00, 0x00, 0x00, 0x84, 0xb3, 0xff, 0xff,
  0x14, 0x00, 0x00, 0x00, 0x12, 0x00, 0x00, 0x00, 0x18, 0x00, 0x00, 0x00,
  0x30, 0x00, 0x00, 0x00, 0x20, 0x00, 0x00, 0x00, 0x02, 0x00, 0x00, 0x00,
  0x01, 0x00, 0x00, 0x00, 0x04, 0x00, 0x00, 0x00, 0x08, 0x00, 0x00, 0x00,
  0x49, 0x64, 0x65, 0x6e, 0x74, 0x69, 0x74, 0x79, 0x00, 0x00, 0x00, 0x00,
  0x02, 0x00, 0x00, 0x00, 0xff, 0xff, 0xff, 0xff, 0x04, 0x00, 0x00, 0x00,
  0x68, 0xb4, 0xff, 0xff, 0x00, 0x00, 0x0e, 0x00, 0x18, 0x00, 0x08, 0x00,
  0x0c, 0x00, 0x10, 0x00, 0x07, 0x00, 0x14, 0x00, 0x0e, 0x00, 0x00, 0x00,
  0x00, 0x00, 0x00, 0x08, 0x03, 0x00, 0x00, 0x00, 0x18, 0x00, 0x00, 0x00,
  0x0c, 0x00, 0x00, 0x00, 0x04, 0x00, 0x00, 0x00, 0x84, 0xb3, 0xff, 0xff,
  0x01, 0x00, 0x00, 0x00, 0x10, 0x00, 0x00, 0x00, 0x03, 0x00, 0x00, 0x00,
  0x0f, 0x00, 0x00, 0x00, 0x07, 0x00, 0x00, 0x00, 0x04, 0x00, 0x00, 0x00,
  0x0c, 0xb4, 0xff, 0xff, 0x14, 0x00, 0x00, 0x00, 0x11, 0x00, 0x00, 0x00,
  0x18, 0x00, 0x00, 0x00, 0x40, 0x00, 0x00, 0x00, 0x30, 0x00, 0x00, 0x00,
  0x02, 0x00, 0x00, 0x00, 0x01, 0x00, 0x00, 0x00, 0x04, 0x00, 0x00, 0x00,
  0x1a, 0x00, 0x00, 0x00, 0x73, 0x65, 0x71, 0x75, 0x65, 0x6e, 0x74, 0x69,
  0x61, 0x6c, 0x2f, 0x64, 0x65, 0x6e, 0x73, 0x65, 0x5f, 0x31, 0x2f, 0x42,
  0x69, 0x61, 0x73, 0x41, 0x64, 0x64, 0x00, 0x00, 0x02, 0x00, 0x00, 0x00,
  0xff, 0xff, 0xff, 0xff, 0x04, 0x00, 0x00, 0x00, 0xf0, 0xb3, 0xff, 0xff,
  0xfa, 0xfc, 0xff, 0xff, 0x00, 0x00, 0x00, 0x08, 0x03, 0x00, 0x00, 0x00,
  0x24, 0x00, 0x00, 0x00, 0x18, 0x00, 0x00, 0x00, 0x0c, 0x00, 0x00, 0x00,
  0x00, 0x00, 0x06, 0x00, 0x08, 0x00, 0x07, 0x00, 0x06, 0x00, 0x00, 0x00,
  0x00, 0x00, 0x00, 0x01, 0x01, 0x00, 0x00, 0x00, 0x0f, 0x00, 0x00, 0x00,
  0x03, 0x00, 0x00, 0x00, 0x0e, 0x00, 0x00, 0x00, 0x06, 0x00, 0x00, 0x00,
  0x03, 0x00, 0x00, 0x00, 0x0a, 0xfc, 0xff, 0xff, 0x00, 0x00, 0x00, 0x09,
  0x01, 0x00, 0x00, 0x00, 0xac, 0xb4, 0xff, 0xff, 0x14, 0x00, 0x00, 0x00,
  0x10, 0x00, 0x00, 0x00, 0x18, 0x00, 0x00, 0x00, 0x54, 0x00, 0x00, 0x00,
  0x44, 0x00, 0x00, 0x00, 0x02, 0x00, 0x00, 0x00, 0x01, 0x00, 0x00, 0x00,
  0x10, 0x00, 0x00, 0x00, 0x2e, 0x00, 0x00, 0x00, 0x73, 0x65, 0x71, 0x75,
  0x65, 0x6e, 0x74, 0x69, 0x61, 0x6c, 0x2f, 0x64, 0x65, 0x6e, 0x73, 0x65,
  0x2f, 0x52, 0x65, 0x6c, 0x75, 0x3b, 0x73, 0x65, 0x71, 0x75, 0x65, 0x6e,
  0x74, 0x69, 0x61, 0x6c, 0x2f, 0x64, 0x65, 0x6e, 0x73, 0x65, 0x2f, 0x42,
  0x69, 0x61, 0x73, 0x41, 0x64, 0x64, 0x00, 0x00, 0x02, 0x00, 0x00, 0x00,
  0xff, 0xff, 0xff, 0xff, 0x10, 0x00, 0x00, 0x00, 0xb4, 0xb5, 0xff, 0xff,
  0x00, 0x00, 0x0a, 0x00, 0x10, 0x00, 0x04, 0x00, 0x08, 0x00, 0x0c, 0x00,
  0x0a, 0x00, 0x00, 0x00, 0x02, 0x00, 0x00, 0x00, 0x10, 0x00, 0x00, 0x00,
  0x04, 0x00, 0x00, 0x00, 0x01, 0x00, 0x00, 0x00, 0x0e, 0x00, 0x00, 0x00,
  0x02, 0x00, 0x00, 0x00, 0x0d, 0x00, 0x00, 0x00, 0x05, 0x00, 0x00, 0x00,
  0xae, 0xfc, 0xff, 0xff, 0x00, 0x00, 0x00, 0x16, 0x01, 0x00, 0x00, 0x00,
  0x50, 0xb5, 0xff, 0xff, 0x14, 0x00, 0x00, 0x00, 0x0f, 0x00, 0x00, 0x00,
  0x18, 0x00, 0x00, 0x00, 0x40, 0x00, 0x00, 0x00, 0x30, 0x00, 0x00, 0x00,
  0x02, 0x00, 0x00, 0x00, 0x01, 0x00, 0x00, 0x00, 0xe0, 0x00, 0x00, 0x00,
  0x1a, 0x00, 0x00, 0x00, 0x73, 0x65, 0x71, 0x75, 0x65, 0x6e, 0x74, 0x69,
  0x61, 0x6c, 0x2f, 0x66, 0x6c, 0x61, 0x74, 0x74, 0x65, 0x6e, 0x2f, 0x52,
  0x65, 0x73, 0x68, 0x61, 0x70, 0x65, 0x00, 0x00, 0x02, 0x00, 0x00, 0x00,
  0xff, 0xff, 0xff, 0xff, 0xe0, 0x00, 0x00, 0x00, 0x34, 0xb5, 0xff, 0xff,
  0x3e, 0xfe, 0xff, 0xff, 0x00, 0x00, 0x00, 0x05, 0x01, 0x00, 0x00, 0x00,
  0x38, 0x00, 0x00, 0x00, 0x2c, 0x00, 0x00, 0x00, 0x14, 0x00, 0x00, 0x00,
  0x00, 0x00, 0x0e, 0x00, 0x14, 0x00, 0x00, 0x00, 0x10, 0x00, 0x0c, 0x00,
  0x08, 0x00, 0x04, 0x00, 0x0e, 0x00, 0x00, 0x00, 0x03, 0x00, 0x00, 0x00,
  0x01, 0x00, 0x00, 0x00, 0x03, 0x00, 0x00, 0x00, 0x01, 0x00, 0x00, 0x00,
  0x01, 0x00, 0x00, 0x00, 0x0d, 0x00, 0x00, 0x00, 0x01, 0x00, 0x00, 0x00,
  0x0c, 0x00, 0x00, 0x00, 0xf0, 0xb5, 0xff, 0xff, 0x14, 0x00, 0x00, 0x00,
  0x0e, 0x00, 0x00, 0x00, 0x20, 0x00, 0x00, 0x00, 0x58, 0x00, 0x00, 0x00,
  0x40, 0x00, 0x00, 0x00, 0x04, 0x00, 0x00, 0x00, 0x01, 0x00, 0x00, 0x00,
  0x0e, 0x00, 0x00, 0x00, 0x01, 0x00, 0x00, 0x00, 0x10, 0x00, 0x00, 0x00,
  0x22, 0x00, 0x00, 0x00, 0x73, 0x65, 0x71, 0x75, 0x65, 0x6e, 0x74, 0x69,
  0x61, 0x6c, 0x2f, 0x6d, 0x61, 0x78, 0x5f, 0x70, 0x6f, 0x6f, 0x6c, 0x69,
  0x6e, 0x67, 0x32, 0x64, 0x5f, 0x31, 0x2f, 0x4d, 0x61, 0x78, 0x50, 0x6f,
  0x6f, 0x6c, 0x00, 0x00, 0x04, 0x00, 0x00, 0x00, 0xff, 0xff, 0xff, 0xff,
  0x0e, 0x00, 0x00, 0x00, 0x01, 0x00, 0x00, 0x00, 0x10, 0x00, 0x00, 0x00,
  0xec, 0xb5, 0xff, 0xff, 0x1e, 0xfe, 0xff, 0xff, 0x00, 0x00, 0x00, 0x01,
  0x24, 0x00, 0x00, 0x00, 0x18, 0x00, 0x00, 0x00, 0x04, 0x00, 0x00, 0x00,
  0x10, 0xfe, 0xff, 0xff, 0x01, 0x00, 0x00, 0x00, 0x01, 0x00, 0x00, 0x00,
  0x00, 0x00, 0x00, 0x01, 0x01, 0x00, 0x00, 0x00, 0x0c, 0x00, 0x00, 0x00,
  0x03, 0x00, 0x00, 0x00, 0x0b, 0x00, 0x00, 0x00, 0x09, 0x00, 0x00, 0x00,
  0x02, 0x00, 0x00, 0x00, 0x98, 0xb6, 0xff, 0xff, 0x14, 0x00, 0x00, 0x00,
  0x0d, 0x00, 0x00, 0x00, 0x20, 0x00, 0x00, 0x00, 0xb8, 0x00, 0x00, 0x00,
  0xa0, 0x00, 0x00, 0x00, 0x04, 0x00, 0x00, 0x00, 0x01, 0x00, 0x00, 0x00,
  0x2a, 0x00, 0x00, 0x00, 0x01, 0x00, 0x00, 0x00, 0x10, 0x00, 0x00, 0x00,
  0x83, 0x00, 0x00, 0x00, 0x73, 0x65, 0x71, 0x75, 0x65, 0x6e, 0x74, 0x69,
  0x61, 0x6c, 0x2f, 0x63, 0x6f, 0x6e, 0x76, 0x32, 0x64, 0x5f, 0x31, 0x2f,
  0x52, 0x65, 0x6c, 0x75, 0x3b, 0x73, 0x65, 0x71, 0x75, 0x65, 0x6e, 0x74,
  0x69, 0x61, 0x6c, 0x2f, 0x63, 0x6f, 0x6e, 0x76, 0x32, 0x64, 0x5f, 0x31,
  0x2f, 0x42, 0x69, 0x61, 0x73, 0x41, 0x64, 0x64, 0x3b, 0x73, 0x65, 0x71,
  0x75, 0x65, 0x6e, 0x74, 0x69, 0x61, 0x6c, 0x2f, 0x63, 0x6f, 0x6e, 0x76,
  0x32, 0x64, 0x5f, 0x31, 0x2f, 0x43, 0x6f, 0x6e, 0x76, 0x32, 0x44, 0x3b,
  0x73, 0x65, 0x71, 0x75, 0x65, 0x6e, 0x74, 0x69, 0x61, 0x6c, 0x2f, 0x63,
  0x6f, 0x6e, 0x76, 0x32, 0x64, 0x5f, 0x31, 0x2f, 0x42, 0x69, 0x61, 0x73,
  0x41, 0x64, 0x64, 0x2f, 0x52, 0x65, 0x61, 0x64, 0x56, 0x61, 0x72, 0x69,
  0x61, 0x62, 0x6c, 0x65, 0x4f, 0x70, 0x2f, 0x72, 0x65, 0x73, 0x6f, 0x75,
  0x72, 0x63, 0x65, 0x00, 0x04, 0x00, 0x00, 0x00, 0xff, 0xff, 0xff, 0xff,
  0x2a, 0x00, 0x00, 0x00, 0x01, 0x00, 0x00, 0x00, 0x10, 0x00, 0x00, 0x00,
  0x04, 0xb8, 0xff, 0xff, 0x00, 0x00, 0x0e, 0x00, 0x1a, 0x00, 0x08, 0x00,
  0x0c, 0x00, 0x10, 0x00, 0x07, 0x00, 0x14, 0x00, 0x0e, 0x00, 0x00, 0x00,
  0x00, 0x00, 0x00, 0x05, 0x01, 0x00, 0x00, 0x00, 0x3c, 0x00, 0x00, 0x00,
  0x30, 0x00, 0x00, 0x00, 0x14, 0x00, 0x00, 0x00, 0x00, 0x00, 0x0e, 0x00,
  0x18, 0x00, 0x17, 0x00, 0x10, 0x00, 0x0c, 0x00, 0x08, 0x00, 0x04, 0x00,
  0x0e, 0x00, 0x00, 0x00, 0x03, 0x00, 0x00, 0x00, 0x03, 0x00, 0x00, 0x00,
  0x03, 0x00, 0x00, 0x00, 0x03, 0x00, 0x00, 0x00, 0x00, 0x00, 0x00, 0x01,
  0x01, 0x00, 0x00, 0x00, 0x0b, 0x00, 0x00, 0x00, 0x01, 0x00, 0x00, 0x00,
  0x0a, 0x00, 0x00, 0x00, 0x2e, 0xff, 0xff, 0xff, 0x00, 0x00, 0x00, 0x11,
  0x01, 0x00, 0x00, 0x00, 0xd0, 0xb7, 0xff, 0xff, 0x14, 0x00, 0x00, 0x00,
  0x0c, 0x00, 0x00, 0x00, 0x20, 0x00, 0x00, 0x00, 0x58, 0x00, 0x00, 0x00,
  0x40, 0x00, 0x00, 0x00, 0x04, 0x00, 0x00, 0x00, 0x01, 0x00, 0x00, 0x00,
  0x2a, 0x00, 0x00, 0x00, 0x01, 0x00, 0x00, 0x00, 0x08, 0x00, 0x00, 0x00,
  0x20, 0x00, 0x00, 0x00, 0x73, 0x65, 0x71, 0x75, 0x65, 0x6e, 0x74, 0x69,
  0x61, 0x6c, 0x2f, 0x6d, 0x61, 0x78, 0x5f, 0x70, 0x6f, 0x6f, 0x6c, 0x69,
  0x6e, 0x67, 0x32, 0x64, 0x2f, 0x4d, 0x61, 0x78, 0x50, 0x6f, 0x6f, 0x6c,
  0x00, 0x00, 0x00, 0x00, 0x04, 0x00, 0x00, 0x00, 0xff, 0xff, 0xff, 0xff,
  0x2a, 0x00, 0x00, 0x00, 0x01, 0x00, 0x00, 0x00, 0x08, 0x00, 0x00, 0x00,
  0xdc, 0xb8, 0xff, 0xff, 0x00, 0x00, 0x0e, 0x00, 0x14, 0x00, 0x00, 0x00,
  0x08, 0x00, 0x0c, 0x00, 0x07, 0x00, 0x10, 0x00, 0x0e, 0x00, 0x00, 0x00,
  0x00, 0x00, 0x00, 0x01, 0x30, 0x00, 0x00, 0x00, 0x24, 0x00, 0x00, 0x00,
  0x10, 0x00, 0x00, 0x00, 0x0c, 0x00, 0x10, 0x00, 0x00, 0x00, 0x04, 0x00,
  0x08, 0x00, 0x0f, 0x00, 0x0c, 0x00, 0x00, 0x00, 0x01, 0x00, 0x00, 0x00,
  0x01, 0x00, 0x00, 0x00, 0x00, 0x00, 0x00, 0x01, 0x01, 0x00, 0x00, 0x00,
  0x0a, 0x00, 0x00, 0x00, 0x03, 0x00, 0x00, 0x00, 0x00, 0x00, 0x00, 0x00,
  0x08, 0x00, 0x00, 0x00, 0x01, 0x00, 0x00, 0x00, 0x00, 0x00, 0x0a, 0x00,
  0x0c, 0x00, 0x07, 0x00, 0x00, 0x00, 0x08, 0x00, 0x0a, 0x00, 0x00, 0x00,
  0x00, 0x00, 0x00, 0x03, 0x01, 0x00, 0x00, 0x00, 0xac, 0xb8, 0xff, 0xff,
  0x14, 0x00, 0x00, 0x00, 0x0b, 0x00, 0x00, 0x00, 0x20, 0x00, 0x00, 0x00,
  0xb0, 0x00, 0x00, 0x00, 0x98, 0x00, 0x00, 0x00, 0x04, 0x00, 0x00, 0x00,
  0x01, 0x00, 0x00, 0x00, 0x80, 0x00, 0x00, 0x00, 0x03, 0x00, 0x00, 0x00,
  0x08, 0x00, 0x00, 0x00, 0x7b, 0x00, 0x00, 0x00, 0x73, 0x65, 0x71, 0x75,
  0x65, 0x6e, 0x74, 0x69, 0x61, 0x6c, 0x2f, 0x63, 0x6f, 0x6e, 0x76, 0x32,
  0x64, 0x2f, 0x52, 0x65, 0x6c, 0x75, 0x3b, 0x73, 0x65, 0x71, 0x75, 0x65,
  0x6e, 0x74, 0x69, 0x61, 0x6c, 0x2f, 0x63, 0x6f, 0x6e, 0x76, 0x32, 0x64,
  0x2f, 0x42, 0x69, 0x61, 0x73, 0x41, 0x64, 0x64, 0x3b, 0x73, 0x65, 0x71,
  0x75, 0x65, 0x6e, 0x74, 0x69, 0x61, 0x6c, 0x2f, 0x63, 0x6f, 0x6e, 0x76,
  0x32, 0x64, 0x2f, 0x43, 0x6f, 0x6e, 0x76, 0x32, 0x44, 0x3b, 0x73, 0x65,
  0x71, 0x75, 0x65, 0x6e, 0x74, 0x69, 0x61, 0x6c, 0x2f, 0x63, 0x6f, 0x6e,
  0x76, 0x32, 0x64, 0x2f, 0x42, 0x69, 0x61, 0x73, 0x41, 0x64, 0x64, 0x2f,
  0x52, 0x65, 0x61, 0x64, 0x56, 0x61, 0x72, 0x69, 0x61, 0x62, 0x6c, 0x65,
  0x4f, 0x70, 0x2f, 0x72, 0x65, 0x73, 0x6f, 0x75, 0x72, 0x63, 0x65, 0x00,
  0x04, 0x00, 0x00, 0x00, 0xff, 0xff, 0xff, 0xff, 0x80, 0x00, 0x00, 0x00,
  0x03, 0x00, 0x00, 0x00, 0x08, 0x00, 0x00, 0x00, 0x00, 0xb9, 0xff, 0xff,
  0x0a, 0xba, 0xff, 0xff, 0x04, 0x00, 0x00, 0x00, 0x00, 0x08, 0x00, 0x00,
  0x3f, 0x62, 0x16, 0xbe, 0xa4, 0x17, 0x10, 0xbf, 0xbc, 0x50, 0xa7, 0xbe,
  0x6b, 0xba, 0xf6, 0xbe, 0x4e, 0x1d, 0xe5, 0xbe, 0x75, 0x2e, 0x47, 0xbf,
  0xf4, 0x27, 0x45, 0xbf, 0xce, 0xfe, 0x77, 0xbe, 0xc7, 0x4b, 0x25, 0x3d,
  0x8a, 0x90, 0x08, 0x3f, 0x15, 0xac, 0x22, 0xbe, 0xa5, 0x03, 0xa8, 0x3e,
  0x40, 0x9c, 0xb7, 0x3d, 0xaf, 0x87, 0x5b, 0xbe, 0x64, 0xac, 0x90, 0xbe,
  0xff, 0x12, 0x90, 0x3e, 0xbb, 0x36, 0x1f, 0xbd, 0xb5, 0xd0, 0x4b, 0x3e,
  0x10, 0x91, 0x28, 0xbe, 0x26, 0x3c, 0x06, 0x3e, 0x5a, 0xb3, 0x62, 0xbd,
  0x13, 0xa6, 0x05, 0xbe, 0xa3, 0xac, 0x29, 0xbe, 0xbc, 0x72, 0x12, 0xbd,
  0x48, 0xfb, 0x1c, 0x3c, 0x68, 0xfa, 0x29, 0x3e, 0x00, 0xfb, 0x9d, 0xbd,
  0x48, 0x39, 0xe3, 0x3c, 0x01, 0x3b, 0x81, 0x3c, 0x9a, 0x17, 0x67, 0xbd,
  0x58, 0xc8, 0xb4, 0xbc, 0xe8, 0x1e, 0xe2, 0x3b, 0x5c, 0x52, 0x72, 0x3e,
  0xb2, 0x9a, 0x57, 0xbe, 0xb1, 0xb1, 0x7e, 0x3d, 0x2b, 0x09, 0x88, 0xbe,
  0x35, 0x85, 0x17, 0xbf, 0x95, 0xd7, 0x7f, 0xbf, 0xb8, 0x54, 0x0b, 0xbf,
  0x46, 0xa9, 0x43, 0x3e, 0x0b, 0x78, 0x1d, 0x3b, 0x10, 0x29, 0x81, 0x3e,
  0x92, 0x95, 0xf5, 0x3d, 0x3e, 0x42, 0x16, 0xbe, 0xa5, 0xec, 0x0e, 0xbe,
  0xe6, 0xde, 0xaa, 0xbe, 0x3a, 0x5b, 0xed, 0xbe, 0xf6, 0x75, 0x7a, 0xbe,
  0xac, 0xbc, 0x12, 0xbe, 0x91, 0x51, 0xab, 0x3d, 0x8e, 0x24, 0x04, 0xbd,
  0x52, 0x92, 0x2e, 0xbe, 0x34, 0x2d, 0xbe, 0xbd, 0x89, 0x92, 0xa5, 0x3d,
  0xcb, 0x2e, 0x8a, 0x3e, 0x08, 0xf9, 0x6e, 0xbe, 0xd5, 0x37, 0x3f, 0xbe,
  0x4f, 0x05, 0x44, 0x3e, 0x54, 0xc1, 0xa9, 0xbd, 0xf3, 0x24, 0xa4, 0xbc,
  0x79, 0xed, 0x17, 0x3e, 0x85, 0x50, 0x56, 0x3e, 0xbf, 0x74, 0x24, 0x3e,
  0x68, 0x7b, 0x09, 0x3c, 0xcd, 0x17, 0x9c, 0xbe, 0x39, 0x62, 0xcc, 0xbe,
  0x6d, 0xf2, 0xf4, 0xbb, 0xd0, 0xfe, 0xac, 0xbe, 0xa6, 0x7a, 0x0d, 0xbe,
  0x04, 0xda, 0x77, 0xbe, 0x5e, 0xa1, 0x7d, 0xbe, 0x4b, 0x63, 0x67, 0xbc,
  0x2b, 0xad, 0x07, 0xbe, 0xc3, 0xeb, 0x0c, 0xbe, 0x06, 0x2b, 0x59, 0xbd,
  0x2a, 0x00, 0x3f, 0xbd, 0x93, 0x47, 0x87, 0xbe, 0x69, 0xd1, 0xcc, 0xbd,
  0x60, 0xdd, 0x2c, 0xbd, 0xe4, 0xac, 0xbe, 0x3e, 0xd8, 0x0f, 0x90, 0xbc,
  0xa0, 0xf6, 0xe8, 0xbd, 0xef, 0x4c, 0xa1, 0xbd, 0x6c, 0x5c, 0x89, 0x3e,
  0x72, 0x88, 0x24, 0xbd, 0xf2, 0x22, 0x00, 0xbd, 0xeb, 0x93, 0x03, 0xbe,
  0x65, 0xaa, 0x84, 0x3c, 0x1c, 0x04, 0xc6, 0x3e, 0xa3, 0x47, 0x27, 0xbe,
  0x96, 0xb9, 0x1f, 0x3d, 0x0b, 0xa2, 0xe3, 0x3b, 0x19, 0xf5, 0x1a, 0x3e,
  0x41, 0x7b, 0x7a, 0x3d, 0x95, 0xb4, 0xf1, 0x3d, 0x47, 0x8b, 0x44, 0xbe,
  0x33, 0x2a, 0x0e, 0x3d, 0xde, 0x6c, 0x99, 0x3e, 0x4a, 0xf0, 0x48, 0xbd,
  0xca, 0x34, 0x20, 0x3e, 0xe1, 0xb5, 0x46, 0x3d, 0x3b, 0xe6, 0x0c, 0x3e,
  0xf5, 0xdc, 0x35, 0x3e, 0xbc, 0xa0, 0xd4, 0x3d, 0x7d, 0xac, 0x92, 0x3e,
  0x4e, 0x33, 0xb3, 0x3d, 0x83, 0x5e, 0x2d, 0x3d, 0x27, 0x78, 0x0b, 0x3e,
  0x75, 0x32, 0x1d, 0xbe, 0x41, 0xb6, 0x1c, 0xbe, 0x91, 0x39, 0x8e, 0xbe,
  0x7d, 0x03, 0x6c, 0xbd, 0xe6, 0x44, 0x47, 0x3d, 0x17, 0x54, 0x04, 0xbe,
  0xb3, 0x8a, 0xb9, 0x3d, 0xe6, 0xc1, 0xa8, 0xbe, 0x66, 0xf4, 0xa2, 0x3d,
  0xb2, 0x46, 0xed, 0xbe, 0x0b, 0x61, 0x28, 0xbf, 0xc5, 0x49, 0xc0, 0xbd,
  0xb9, 0x52, 0x87, 0xbd, 0xbf, 0x53, 0x80, 0xbe, 0x74, 0x8d, 0xc1, 0x3c,
  0x8f, 0x1c, 0xea, 0xbe, 0xce, 0x6b, 0xc9, 0xbb, 0xa5, 0x61, 0x44, 0xbf,
  0xc9, 0xe4, 0x78, 0xbf, 0xe7, 0xa1, 0x8c, 0xbd, 0x1e, 0x03, 0x26, 0xbe,
  0xb7, 0x01, 0x35, 0xbe, 0xd9, 0xe8, 0x10, 0xbe, 0x89, 0xad, 0xf9, 0xbd,
  0x82, 0x83, 0x3d, 0x3e, 0x47, 0x66, 0xe0, 0x3e, 0xc1, 0xdf, 0x6a, 0x3e,
  0xe3, 0x07, 0xf3, 0xbd, 0xbb, 0xda, 0x50, 0xbe, 0xf4, 0x71, 0x3f, 0xbe,
  0x32, 0x8c, 0x75, 0xbe, 0x38, 0xfa, 0x1d, 0xbe, 0x8a, 0xd9, 0xc8, 0x3e,
  0xcc, 0x94, 0x84, 0xbd, 0xb2, 0x1f, 0x19, 0xbd, 0x38, 0xdd, 0x0e, 0xbe,
  0x52, 0x7f, 0xee, 0xbd, 0xa1, 0x36, 0xb6, 0xbb, 0x54, 0x3d, 0x0c, 0xbd,
  0xf7, 0x20, 0xd6, 0x3c, 0x4a, 0x96, 0xaf, 0xbe, 0x91, 0x1a, 0xf2, 0xbd,
  0xbe, 0x2a, 0xa5, 0xbd, 0xf1, 0x62, 0xf5, 0x3d, 0x5a, 0x62, 0x19, 0x3e,
  0x38, 0xf5, 0x39, 0x3e, 0xc7, 0x6c, 0x9c, 0x3e, 0xd6, 0x79, 0x32, 0xbf,
  0x9e, 0xc6, 0xa7, 0xbe, 0xe3, 0x9f, 0x82, 0xbe, 0x68, 0xf6, 0x6e, 0xbe,
  0x27, 0xa1, 0xb7, 0xbc, 0x32, 0x1a, 0xd0, 0xbd, 0x42, 0x26, 0xab, 0xbd,
  0x50, 0x15, 0xdb, 0xbd, 0x45, 0xe5, 0x43, 0x3d, 0x8e, 0x81, 0xa2, 0x3e,
  0x95, 0x0b, 0x3a, 0xbe, 0x98, 0x9a, 0x73, 0xbe, 0xa9, 0x8d, 0xbe, 0x3d,
  0x0d, 0x3a, 0x91, 0x3c, 0x1f, 0xca, 0xee, 0x3c, 0x33, 0x72, 0x8e, 0x3c,
  0x7a, 0xea, 0xea, 0xbd, 0xb6, 0xc7, 0xf1, 0xbc, 0xd3, 0x91, 0x86, 0xbe,
  0x46, 0x86, 0x97, 0xbe, 0xdd, 0xbe, 0xc0, 0x3e, 0x98, 0xe0, 0x03, 0x3d,
  0xde, 0x69, 0x3f, 0x3c, 0x39, 0xc1, 0x88, 0xbe, 0xcf, 0xf5, 0xe6, 0x3d,
  0x85, 0xad, 0x5b, 0x3d, 0xb7, 0xf8, 0x3d, 0xbe, 0x15, 0xc1, 0x54, 0xbe,
  0x5e, 0x96, 0x90, 0xbe, 0x37, 0x9f, 0xb5, 0x3b, 0xea, 0x12, 0x9e, 0xbd,
  0xd5, 0xbd, 0xb9, 0xbe, 0xa7, 0x14, 0xf0, 0x3d, 0xae, 0x93, 0xb9, 0x3d,
  0xd1, 0xb3, 0x85, 0x3e, 0x7c, 0x9e, 0x9e, 0x3e, 0x73, 0x95, 0x5f, 0xbe,
  0x70, 0x1e, 0x91, 0x3e, 0x1e, 0x14, 0x75, 0x3d, 0x5f, 0xf5, 0x0a, 0x3e,
  0xd5, 0xdc, 0xb7, 0x3d, 0x58, 0x80, 0x39, 0x3e, 0x19, 0xc9, 0x92, 0xbe,
  0x36, 0x87, 0x81, 0xbe, 0x99, 0x02, 0x4a, 0x3e, 0x38, 0x89, 0x99, 0x3e,
  0xfd, 0x43, 0x3a, 0x3d, 0x5a, 0x45, 0x0a, 0xbd, 0x34, 0xfa, 0x08, 0x3e,
  0x1a, 0xab, 0x9d, 0x3e, 0xa8, 0x67, 0xc2, 0xbe, 0xc6, 0xb0, 0x9a, 0xbe,
  0x25, 0x98, 0x5e, 0xbe, 0x58, 0x21, 0xdb, 0xbd, 0xcc, 0x89, 0x5e, 0xbd,
  0x34, 0x38, 0x2d, 0xbd, 0x22, 0x68, 0xbd, 0x3d, 0xfb, 0xac, 0xa1, 0x3e,
  0x50, 0xc9, 0xb0, 0xbe, 0xab, 0x77, 0x93, 0xbe, 0x65, 0x97, 0xc4, 0xbe,
  0x1e, 0x90, 0x87, 0xbe, 0x67, 0xfb, 0xaf, 0xbd, 0x51, 0x76, 0x28, 0xbe,
  0xf3, 0xfd, 0x68, 0x3d, 0xe5, 0x4f, 0x10, 0xbe, 0xa2, 0xc8, 0x44, 0xbe,
  0x9d, 0xcf, 0x00, 0xbe, 0x69, 0x5a, 0xc1, 0xbe, 0x91, 0x6e, 0x93, 0xbe,
  0x52, 0x62, 0xac, 0xbd, 0xbe, 0xf4, 0x4c, 0xbe, 0x41, 0x59, 0x37, 0xbd,
  0xac, 0x0e, 0xd6, 0xbc, 0xe9, 0x64, 0xe9, 0x3d, 0xd3, 0x45, 0x6d, 0x3e,
  0x48, 0xbc, 0xa6, 0xbe, 0x8f, 0xeb, 0x9d, 0xbe, 0xdb, 0x95, 0xaa, 0x3d,
  0xdc, 0x50, 0x86, 0x3e, 0xaf, 0xf1, 0x00, 0x3e, 0xfe, 0xa3, 0xf9, 0xbc,
  0x96, 0x96, 0x2b, 0x3e, 0x06, 0xfc, 0x16, 0xbc, 0x8e, 0xc1, 0xee, 0xbd,
  0x21, 0x16, 0xc3, 0xbe, 0x99, 0x7d, 0x5a, 0x3d, 0x22, 0xfe, 0x2c, 0x3c,
  0x26, 0x62, 0xac, 0x3a, 0x9c, 0xe8, 0xd5, 0xbd, 0xa3, 0xd6, 0x04, 0xbe,
  0x9b, 0x8e, 0x0a, 0xbd, 0x6c, 0xaa, 0xff, 0x3d, 0xdc, 0xd7, 0x92, 0xbd,
  0xab, 0xfc, 0x12, 0xbe, 0x12, 0x3b, 0xa9, 0x3d, 0x5d, 0x3f, 0xf1, 0xbe,
  0x0f, 0x7c, 0xae, 0xbe, 0xaf, 0xf8, 0x5d, 0xbe, 0x28, 0x71, 0x5b, 0xbe,
  0x98, 0xba, 0x8a, 0x3e, 0x06, 0x8a, 0xc7, 0x3d, 0x18, 0x08, 0xa3, 0xbd,
  0xb8, 0x26, 0x61, 0xbe, 0x6b, 0xd7, 0x66, 0x3d, 0xd8, 0x9f, 0xcd, 0xbe,
  0xda, 0x87, 0x11, 0xbe, 0x9c, 0x8e, 0xa2, 0xbd, 0xfd, 0x86, 0x5f, 0x3e,
  0x1a, 0x59, 0x84, 0x3e, 0x47, 0x02, 0xab, 0xbe, 0x15, 0x0a, 0x37, 0xbe,
  0x09, 0xd1, 0x20, 0x3e, 0x39, 0xd1, 0xbc, 0xbe, 0xff, 0xdf, 0xfa, 0xbb,
  0x66, 0xd0, 0xff, 0x3c, 0xd5, 0xed, 0xad, 0xbd, 0x25, 0xf9, 0xc3, 0xbc,
  0xf6, 0x1d, 0x8f, 0xbd, 0x12, 0x11, 0xbd, 0xbd, 0x49, 0xd4, 0x40, 0x3e,
  0xba, 0x1e, 0x11, 0xbf, 0xa4, 0x9e, 0x84, 0xbe, 0xa4, 0x1a, 0xcd, 0xbe,
  0x0a, 0x77, 0xd2, 0x3b, 0x3c, 0x21, 0xe8, 0xbc, 0x74, 0x08, 0x80, 0x3d,
  0x04, 0x51, 0x99, 0x3e, 0xc7, 0x80, 0xa0, 0xbe, 0x9f, 0xa6, 0x14, 0xbf,
  0xd8, 0xd7, 0xe4, 0xbe, 0xa4, 0x38, 0x25, 0xbf, 0xa3, 0xeb, 0xcc, 0x3c,
  0x25, 0x95, 0xd2, 0xbd, 0x0a, 0x70, 0xb8, 0xbe, 0x55, 0x76, 0xae, 0xbe,
  0x2f, 0xc9, 0xf0, 0xbd, 0x31, 0xcd, 0x1c, 0xbd, 0x12, 0x6b, 0x8f, 0xbd,
  0x3c, 0xe3, 0x90, 0xbd, 0xa5, 0xd3, 0xa9, 0xbe, 0x17, 0xff, 0x1b, 0xbd,
  0x73, 0x4a, 0xdf, 0x3e, 0xf1, 0x2c, 0xe8, 0xbe, 0x84, 0x6d, 0x33, 0x3e,
  0x0b, 0xab, 0x86, 0xbd, 0x27, 0x97, 0x9b, 0xbd, 0x85, 0x84, 0xf7, 0xbc,
  0x4a, 0xa7, 0x12, 0xbd, 0x97, 0x5e, 0x8a, 0x3d, 0x1c, 0x27, 0x9c, 0x3e,
  0x4f, 0xbd, 0x8b, 0xbe, 0x3e, 0xb4, 0x09, 0x3d, 0x88, 0xda, 0x7a, 0xbc,
  0xea, 0xde, 0x37, 0x3d, 0x6e, 0xce, 0x8a, 0xbc, 0x00, 0x62, 0x12, 0xbd,
  0xaf, 0x17, 0x41, 0xbd, 0x62, 0xee, 0xaa, 0x3d, 0xb2, 0x54, 0x9c, 0xbe,
  0xb0, 0x10, 0xd2, 0x3d, 0x80, 0xa9, 0x8a, 0x3d, 0x46, 0x03, 0x8c, 0x3d,
  0x1c, 0xec, 0x26, 0x3e, 0x0c, 0x1b, 0x59, 0xbd, 0x1c, 0x51, 0x0e, 0xbe,
  0x08, 0xd0, 0x13, 0xbc, 0xcf, 0xca, 0x35, 0xbd, 0xfe, 0x08, 0x95, 0xbe,
  0xa5, 0xa1, 0x53, 0x3e, 0x76, 0xfd, 0x1a, 0x3e, 0x1f, 0xc1, 0x58, 0xbb,
  0x8d, 0xc9, 0x27, 0x3d, 0x0b, 0x63, 0xb7, 0xbc, 0xc3, 0x1d, 0xcf, 0xbd,
  0x11, 0x58, 0x8d, 0xbd, 0xfd, 0x73, 0xb1, 0xbe, 0x5d, 0x48, 0x4d, 0xbd,
  0xd8, 0x25, 0x78, 0x3e, 0x8c, 0x82, 0x6b, 0x3d, 0xc2, 0xdc, 0xe7, 0xbc,
  0xef, 0x90, 0x25, 0xbc, 0xda, 0x61, 0x83, 0xbd, 0x0f, 0x7c, 0x2b, 0xbe,
  0xa9, 0x67, 0xc4, 0xbe, 0xa1, 0xeb, 0x01, 0xbd, 0xa7, 0xe4, 0x43, 0xbc,
  0x90, 0xf2, 0x07, 0x3e, 0x9c, 0xf9, 0x87, 0xbd, 0x4c, 0xa5, 0xcb, 0xbc,
  0x3b, 0x7d, 0x2c, 0xbe, 0x5b, 0x23, 0xef, 0xbd, 0x1d, 0xad, 0x1b, 0xbf,
  0x6a, 0xb9, 0x7b, 0xbd, 0x5f, 0xb1, 0x7d, 0xbc, 0x08, 0x4e, 0x0d, 0x3e,
  0xc8, 0x32, 0x07, 0xbe, 0x01, 0xa4, 0x9b, 0x3e, 0x19, 0x76, 0x08, 0xbe,
  0xf1, 0x15, 0xef, 0xbd, 0x21, 0x7e, 0x44, 0x3e, 0xa9, 0x24, 0x51, 0x3e,
  0xac, 0x76, 0x94, 0xbe, 0x60, 0xb4, 0x95, 0xbe, 0x73, 0x2b, 0x33, 0xbe,
  0x8d, 0x44, 0x7e, 0x3e, 0x56, 0x35, 0x7c, 0xbe, 0x20, 0x08, 0x86, 0xbe,
  0x91, 0x49, 0x1b, 0x3e, 0xa8, 0x7f, 0xf5, 0x3e, 0xca, 0xc9, 0x8d, 0xbe,
  0xc8, 0xcb, 0x5e, 0xbe, 0x1e, 0x2d, 0xe7, 0xbe, 0x35, 0x06, 0x6b, 0xbe,
  0xa9, 0x58, 0x8d, 0xbd, 0x87, 0x74, 0x16, 0x3e, 0xdf, 0x07, 0xe0, 0x3d,
  0x01, 0x91, 0x00, 0xbe, 0x03, 0xb6, 0x42, 0x3d, 0x6a, 0x9b, 0xe3, 0x3d,
  0x18, 0xf5, 0x75, 0xbe, 0x4f, 0x82, 0x1f, 0xbf, 0xec, 0x28, 0x07, 0xbe,
  0x16, 0x36, 0x5a, 0x3e, 0xfb, 0x27, 0x8e, 0xbd, 0x8d, 0xc4, 0x50, 0xbe,
  0x2d, 0xf7, 0xa6, 0x3d, 0x9b, 0x01, 0x59, 0x3e, 0x8e, 0x52, 0x2c, 0xbe,
  0x19, 0x0b, 0x08, 0x3d, 0xbf, 0xf5, 0x6d, 0x3e, 0xf6, 0x7d, 0xa1, 0x3e,
  0x70, 0xe7, 0xf7, 0xbe, 0x16, 0xc1, 0xd1, 0xbe, 0x14, 0x57, 0x4c, 0xbe,
  0xd5, 0x95, 0x05, 0xbe, 0xae, 0x12, 0x8c, 0xbd, 0x84, 0x0d, 0xdd, 0xbb,
  0xc8, 0xe7, 0x50, 0x3d, 0x31, 0x96, 0xb5, 0xbc, 0x0d, 0xba, 0xfa, 0xbe,
  0x22, 0x13, 0xda, 0xbe, 0x2c, 0xde, 0x64, 0x3d, 0xd5, 0x58, 0x62, 0x3e,
  0xe8, 0x8b, 0xff, 0xbc, 0xb2, 0x12, 0xba, 0xbc, 0x10, 0x65, 0xc6, 0x3a,
  0x0f, 0x32, 0xc0, 0x3c, 0x37, 0x3c, 0x3e, 0xbf, 0x09, 0xcd, 0x33, 0xbf,
  0x53, 0xc1, 0xf4, 0xbe, 0x41, 0x81, 0x62, 0xbe, 0x4d, 0xb5, 0x68, 0x3d,
  0x0f, 0x12, 0x04, 0x3e, 0xe4, 0xde, 0xf1, 0xbd, 0xb0, 0xe7, 0x47, 0xbd,
  0x86, 0x35, 0x14, 0xbf, 0x58, 0xfe, 0xfc, 0xbe, 0xe5, 0x4b, 0x53, 0xbf,
  0x7c, 0xc3, 0x6e, 0xbe, 0x7b, 0x73, 0x33, 0x3e, 0xed, 0xfd, 0xfd, 0xbc,
  0x1c, 0x51, 0x86, 0xbd, 0xf5, 0xe1, 0xdc, 0xbc, 0x9d, 0x93, 0x93, 0xbe,
  0xa2, 0xa0, 0x86, 0xbe, 0x7b, 0x50, 0x73, 0xbe, 0xd3, 0x04, 0x6a, 0xbd,
  0x56, 0xf1, 0xca, 0x38, 0x2a, 0x16, 0x69, 0xbd, 0xab, 0x3d, 0xdb, 0x3e,
  0x14, 0x6a, 0xd1, 0x3b, 0x8b, 0x85, 0x7a, 0xbe, 0x05, 0x40, 0xba, 0xb9,
  0x4e, 0x0e, 0xa6, 0x3e, 0x2c, 0xef, 0x9b, 0x3e, 0x7b, 0xdf, 0xd0, 0xbd,
  0x10, 0x5a, 0xa4, 0xbd, 0x1b, 0xc1, 0x95, 0x3d, 0xaa, 0x1c, 0xb8, 0x3d,
  0x64, 0x1f, 0x35, 0x3d, 0x00, 0xe3, 0x83, 0xbe, 0xe6, 0x86, 0x81, 0xbe,
  0x3b, 0x04, 0x9e, 0x3e, 0x48, 0x05, 0x4b, 0xbe, 0x88, 0x0f, 0xca, 0xbd,
  0xd8, 0xda, 0xde, 0x3d, 0x51, 0x72, 0x1c, 0x3c, 0xf7, 0x60, 0xb0, 0xbe,
  0xe4, 0xc0, 0xcb, 0xbe, 0xfa, 0x30, 0x9d, 0xbe, 0x8a, 0xe0, 0x92, 0xbe,
  0xdd, 0x6f, 0x58, 0xbe, 0x04, 0x02, 0x98, 0xbc, 0x42, 0x9b, 0xe6, 0x3d,
  0xbd, 0xca, 0xe5, 0xbe, 0x61, 0x59, 0x87, 0xbd, 0x87, 0xce, 0xa5, 0xbc,
  0xfc, 0x37, 0x37, 0x3b, 0x2d, 0x60, 0x9d, 0xbc, 0x98, 0xd5, 0x42, 0xbc,
  0xc6, 0x93, 0x89, 0x3d, 0x8a, 0x56, 0x18, 0x3d, 0x90, 0x07, 0xa4, 0xbe,
  0x7c, 0xa4, 0x4d, 0x3e, 0x64, 0xbb, 0x89, 0xbd, 0x09, 0x1c, 0xb0, 0xbc,
  0x09, 0xf8, 0x24, 0x3c, 0xde, 0xa9, 0xf2, 0x3e, 0xbf, 0x9c, 0xf5, 0xbd,
  0x2e, 0x83, 0x9b, 0xbe, 0x70, 0x48, 0x1d, 0xbe, 0x5f, 0xda, 0x4e, 0xbe,
  0xc8, 0x1b, 0x9f, 0xbd, 0xf2, 0x33, 0x10, 0x3d, 0x7f, 0xfe, 0x09, 0xbd,
  0x65, 0x99, 0xc4, 0x3d, 0x08, 0x58, 0xcf, 0x3b, 0x6a, 0xf3, 0x83, 0xbe,
  0xaf, 0x58, 0x0d, 0x3e, 0xeb, 0xa6, 0xb4, 0xbe, 0x86, 0x2d, 0x1d, 0xbe,
  0xb4, 0x41, 0x5b, 0xbd, 0x1f, 0x90, 0x92, 0xbd, 0x7e, 0x36, 0x22, 0xbd,
  0xe3, 0x61, 0x63, 0xbd, 0x43, 0xbc, 0x35, 0x3d, 0xd2, 0xdf, 0x10, 0x3e,
  0x4f, 0x22, 0x5f, 0x3d, 0x3c, 0x80, 0x43, 0xbd, 0x61, 0xa2, 0xf5, 0xbd,
  0xe0, 0xc0, 0xdf, 0xbd, 0x35, 0x18, 0xb5, 0xbc, 0x39, 0xa2, 0xf2, 0xbd,
  0x99, 0xf0, 0xff, 0xbc, 0xfe, 0x7b, 0xf2, 0x3d, 0x21, 0x9f, 0x57, 0xbd,
  0xd5, 0x20, 0xd7, 0x3d, 0x0c, 0xd6, 0x9d, 0x3e, 0xbd, 0x4b, 0xfa, 0x3d,
  0xda, 0xf9, 0x08, 0xbe, 0x99, 0x30, 0x27, 0xbe, 0x47, 0x1a, 0x72, 0xbd,
  0xad, 0x81, 0xb8, 0xbd, 0x28, 0x1b, 0x06, 0xbd, 0x02, 0xda, 0x37, 0x3d,
  0x11, 0x5e, 0xe4, 0x3c, 0xd0, 0xe9, 0x3b, 0x3c, 0xae, 0x7e, 0x89, 0xbc,
  0xe7, 0x2d, 0x18, 0xbe, 0x78, 0xd0, 0xa5, 0x3d, 0xd8, 0xd7, 0x26, 0x3e,
  0xce, 0x0b, 0xe9, 0xbc, 0x8c, 0x2d, 0x31, 0x3c, 0x3e, 0x11, 0x1e, 0xbc,
  0x7b, 0x6a, 0xff, 0x3d, 0x57, 0x28, 0x11, 0x3d, 0xe2, 0xc1, 0xff, 0xff,
  0x10, 0x00, 0x00, 0x00, 0x0a, 0x00, 0x00, 0x00, 0x1c, 0x00, 0x00, 0x00,
  0x38, 0x00, 0x00, 0x00, 0x04, 0x00, 0x00, 0x00, 0x10, 0x00, 0x00, 0x00,
  0x04, 0x00, 0x00, 0x00, 0x01, 0x00, 0x00, 0x00, 0x08, 0x00, 0x00, 0x00,
  0x1a, 0x00, 0x00, 0x00, 0x73, 0x65, 0x71, 0x75, 0x65, 0x6e, 0x74, 0x69,
  0x61, 0x6c, 0x2f, 0x63, 0x6f, 0x6e, 0x76, 0x32, 0x64, 0x5f, 0x31, 0x2f,
  0x43, 0x6f, 0x6e, 0x76, 0x32, 0x44, 0x00, 0x00, 0x58, 0xc1, 0xff, 0xff,
  0x62, 0xc2, 0xff, 0xff, 0x04, 0x00, 0x00, 0x00, 0x80, 0x01, 0x00, 0x00,
  0x1e, 0x53, 0x8d, 0xba, 0x27, 0xa1, 0x17, 0xbd, 0x0b, 0x51, 0x46, 0x3e,
  0xaa, 0x72, 0x27, 0x3d, 0x6c, 0x9e, 0xdc, 0xbc, 0xe2, 0x9c, 0xfe, 0x3d,
  0xcb, 0x5b, 0x09, 0xbd, 0x90, 0x41, 0x82, 0x3c, 0x90, 0xd7, 0x84, 0x3a,
  0xd6, 0x5a, 0x29, 0xba, 0xd1, 0x65, 0x22, 0x3c, 0x8a, 0xd0, 0x0e, 0xbe,
  0xa1, 0x2b, 0x93, 0x3e, 0xb5, 0x6d, 0x94, 0xbd, 0x0c, 0xd6, 0xed, 0xbe,
  0xfe, 0x07, 0x36, 0x3e, 0xce, 0x25, 0x41, 0xbe, 0xd1, 0x97, 0xa2, 0xbd,
  0xf4, 0xda, 0xae, 0xbd, 0xe4, 0x6a, 0x32, 0x3e, 0xd5, 0xcb, 0xf2, 0x3c,
  0xab, 0x8d, 0x92, 0xbd, 0xd0, 0x19, 0xf2, 0xbd, 0x68, 0xad, 0x86, 0xbe,
  0x41, 0xb1, 0x5f, 0x3d, 0xe3, 0x2c, 0x5e, 0xbd, 0xe0, 0x13, 0x62, 0xbd,
  0xe7, 0x68, 0xdd, 0x3d, 0x83, 0x12, 0x28, 0x3d, 0x6d, 0xb6, 0x63, 0xbd,
  0x56, 0xf0, 0xe3, 0x3d, 0x45, 0x8c, 0xb1, 0xbd, 0xc1, 0xe5, 0xf8, 0xbc,
  0x55, 0xe8, 0x1f, 0x3e, 0x01, 0x39, 0xe6, 0x3c, 0xe5, 0xc4, 0x9a, 0xbc,
  0xc3, 0xe7, 0x73, 0xbd, 0x21, 0x47, 0x9b, 0x3e, 0x62, 0x7d, 0x03, 0xbe,
  0x74, 0x92, 0xf9, 0x3d, 0xd4, 0x78, 0x79, 0xbc, 0x76, 0x06, 0x99, 0xbe,
  0x83, 0x0c, 0x6d, 0xbe, 0xcf, 0x02, 0x00, 0xbe, 0x42, 0x85, 0x67, 0xbd,
  0xb0, 0x64, 0x80, 0xbe, 0xf8, 0x8b, 0xb2, 0xbd, 0x86, 0xed, 0xad, 0xbe,
  0x17, 0x81, 0x3e, 0xbe, 0xeb, 0x79, 0xf7, 0xbd, 0x13, 0x7d, 0x6a, 0x3e,
  0xb5, 0x5e, 0xb0, 0xbd, 0xb6, 0x38, 0xa5, 0xbd, 0xe3, 0x67, 0x84, 0x3e,
  0x71, 0xf6, 0x31, 0x3d, 0x47, 0xe6, 0xc3, 0xbd, 0x97, 0x76, 0x01, 0xbe,
  0x52, 0x88, 0xee, 0xbd, 0xdc, 0x5a, 0x44, 0x3d, 0xda, 0x98, 0xc9, 0xbe,
  0x7e, 0xca, 0xd0, 0x3d, 0x16, 0xf0, 0x43, 0xbe, 0xfc, 0x22, 0x78, 0xbd,
  0xd6, 0x45, 0x05, 0xbe, 0x3b, 0x5f, 0x8d, 0x3c, 0x91, 0x00, 0x98, 0x3d,
  0x9f, 0x55, 0x51, 0x3d, 0x33, 0x3d, 0xc0, 0xbd, 0xc2, 0x06, 0x20, 0xbe,
  0x7d, 0x6e, 0x39, 0x3e, 0xb9, 0x81, 0x74, 0xbe, 0x65, 0xa6, 0x8e, 0xbc,
  0xc7, 0x5e, 0xfd, 0xbd, 0x18, 0x0b, 0x46, 0xbd, 0xb1, 0x59, 0xd9, 0xbd,
  0x5e, 0x0a, 0x4f, 0x3d, 0x17, 0xc4, 0x17, 0xbe, 0x6f, 0x78, 0x91, 0x3d,
  0x0a, 0x61, 0x49, 0x3e, 0x3a, 0x81, 0x13, 0xbd, 0x59, 0xb5, 0xf1, 0xbd,
  0x2b, 0x45, 0xb7, 0x3d, 0x8f, 0xcf, 0x5f, 0xbe, 0x56, 0xe9, 0x7e, 0xbd,
  0x68, 0x0d, 0x13, 0xbe, 0x77, 0x76, 0x17, 0xbe, 0x8d, 0xdd, 0x9e, 0xbe,
  0xfe, 0xca, 0xc7, 0xbc, 0x67, 0x04, 0xb6, 0x3a, 0x87, 0x20, 0x12, 0x3d,
  0x3c, 0x6b, 0x07, 0x3e, 0xb7, 0xba, 0xc0, 0x3d, 0xc2, 0x1f, 0x35, 0x3e,
  0xea, 0xf3, 0xca, 0x3d, 0xf4, 0xda, 0xae, 0xba, 0x48, 0x13, 0x7d, 0x3e,
  0xba, 0xc3, 0xff, 0xff, 0x10, 0x00, 0x00, 0x00, 0x09, 0x00, 0x00, 0x00,
  0x1c, 0x00, 0x00, 0x00, 0x38, 0x00, 0x00, 0x00, 0x04, 0x00, 0x00, 0x00,
  0x08, 0x00, 0x00, 0x00, 0x04, 0x00, 0x00, 0x00, 0x03, 0x00, 0x00, 0x00,
  0x01, 0x00, 0x00, 0x00, 0x18, 0x00, 0x00, 0x00, 0x73, 0x65, 0x71, 0x75,
  0x65, 0x6e, 0x74, 0x69, 0x61, 0x6c, 0x2f, 0x63, 0x6f, 0x6e, 0x76, 0x32,
  0x64, 0x2f, 0x43, 0x6f, 0x6e, 0x76, 0x32, 0x44, 0x00, 0x00, 0x00, 0x00,
  0x30, 0xc3, 0xff, 0xff, 0x3a, 0xc4, 0xff, 0xff, 0x04, 0x00, 0x00, 0x00,
  0x00, 0x01, 0x00, 0x00, 0x15, 0x5e, 0x83, 0xbe, 0x3c, 0x9a, 0xa3, 0x3e,
  0x06, 0xda, 0xee, 0x3d, 0xc5, 0xcd, 0x3f, 0x3e, 0x8c, 0x95, 0x72, 0x3e,
  0x9c, 0xd0, 0x6d, 0x3d, 0xba, 0x1d, 0x06, 0x3a, 0x77, 0x09, 0x29, 0xbe,
  0xa5, 0xb5, 0x78, 0xbe, 0x8c, 0xf4, 0xf5, 0x3d, 0x0d, 0xda, 0x90, 0x3d,
  0xa4, 0xbd, 0xa9, 0x3e, 0x7e, 0x3d, 0x19, 0xbe, 0xaf, 0x60, 0x28, 0xbe,
  0x7b, 0xd3, 0x9b, 0xbe, 0x8d, 0x34, 0xab, 0x3e, 0x1e, 0xd9, 0xa5, 0xbe,
  0x2c, 0x0e, 0xe3, 0xbe, 0xcb, 0x54, 0xd0, 0xbe, 0xb1, 0x0e, 0x7e, 0x3e,
  0x3d, 0xc4, 0x21, 0x3e, 0x79, 0x01, 0xea, 0xbc, 0x84, 0xea, 0x9f, 0xbe,
  0x4d, 0xa0, 0x4a, 0xbe, 0x24, 0xba, 0xa1, 0xbe, 0x42, 0x95, 0xba, 0x3d,
  0x0a, 0xee, 0x64, 0x3d, 0x0d, 0xb8, 0xbf, 0x3e, 0x6d, 0xd5, 0x69, 0xbe,
  0xa3, 0x96, 0x62, 0xbe, 0xd3, 0xaf, 0x93, 0xbe, 0xa1, 0x3d, 0x96, 0x3e,
  0xe1, 0x92, 0x7a, 0xbe, 0x78, 0x36, 0xaf, 0xbe, 0xf7, 0x1c, 0xc2, 0xbe,
  0x25, 0xc3, 0x2f, 0x3e, 0x06, 0xee, 0x2a, 0x3e, 0x8b, 0xcc, 0x89, 0x3d,
  0x8b, 0xbe, 0x06, 0x3e, 0x09, 0x43, 0xed, 0xbd, 0x3e, 0x3d, 0xa0, 0xbe,
  0xf6, 0x9e, 0x20, 0x3e, 0x2c, 0x69, 0x1d, 0x3e, 0xf8, 0xfd, 0xe5, 0x3e,
  0x14, 0xe6, 0x61, 0xbe, 0x28, 0x66, 0x27, 0xbe, 0x38, 0xe7, 0x7c, 0xbe,
  0x74, 0xb9, 0xb4, 0x3e, 0x29, 0x99, 0x74, 0xbe, 0x45, 0x77, 0x3c, 0x3e,
  0xcd, 0x1e, 0x92, 0xbe, 0xb9, 0x1e, 0x38, 0x3e, 0x72, 0xbc, 0x40, 0x3e,
  0xe8, 0x81, 0xfa, 0x3d, 0x11, 0x57, 0xd7, 0x3e, 0xe3, 0xed, 0x39, 0xbe,
  0xd7, 0xfa, 0x92, 0xbe, 0xa5, 0x4a, 0xd9, 0x3d, 0xa3, 0x8a, 0xf1, 0x3d,
  0xa3, 0xdd, 0xc9, 0x3e, 0x93, 0x5b, 0x5b, 0xbe, 0x9c, 0x34, 0x14, 0xbe,
  0xa6, 0x96, 0x9d, 0xbe, 0x1e, 0xe0, 0xc3, 0x3e, 0x12, 0xc5, 0xff, 0xff,
  0x10, 0x00, 0x00, 0x00, 0x08, 0x00, 0x00, 0x00, 0x14, 0x00, 0x00, 0x00,
  0x30, 0x00, 0x00, 0x00, 0x02, 0x00, 0x00, 0x00, 0x04, 0x00, 0x00, 0x00,
  0x10, 0x00, 0x00, 0x00, 0x19, 0x00, 0x00, 0x00, 0x73, 0x65, 0x71, 0x75,
  0x65, 0x6e, 0x74, 0x69, 0x61, 0x6c, 0x2f, 0x64, 0x65, 0x6e, 0x73, 0x65,
  0x5f, 0x31, 0x2f, 0x4d, 0x61, 0x74, 0x4d, 0x75, 0x6c, 0x00, 0x00, 0x00,
  0x80, 0xc4, 0xff, 0xff, 0x8a, 0xc5, 0xff, 0xff, 0x04, 0x00, 0x00, 0x00,
  0x00, 0x38, 0x00, 0x00, 0x74, 0xfc, 0x8e, 0x3e, 0x78, 0x91, 0x93, 0x3e,
  0xaa, 0xf9, 0x4f, 0xbd, 0xcf, 0x7d, 0xac, 0x3e, 0x3a, 0x4f, 0xcc, 0x3c,
  0xe9, 0x4f, 0xc0, 0x3d, 0x1f, 0xc2, 0x65, 0x3d, 0x7d, 0x43, 0x39, 0x3e,
  0x63, 0x87, 0x2f, 0xbe, 0xeb, 0x27, 0x91, 0x3e, 0x22, 0x86, 0x02, 0x3d,
  0xb4, 0xd2, 0x3d, 0x3e, 0xba, 0x38, 0x22, 0x3f, 0xf3, 0xb4, 0xb4, 0x3e,
  0x4e, 0x9d, 0xb0, 0xbc, 0xff, 0xd9, 0xae, 0xbc, 0x77, 0xd6, 0x4d, 0xbd,
  0xf5, 0x45, 0x15, 0x3e, 0x94, 0x6f, 0x66, 0xbd, 0xa8, 0x9d, 0x67, 0xbd,
  0xac, 0x6f, 0x1a, 0x3e, 0x23, 0xb5, 0xfe, 0xbd, 0x86, 0xc0, 0x47, 0xbe,
  0x14, 0x7e, 0x24, 0x3e, 0x32, 0x9e, 0x53, 0x3d, 0x60, 0x8b, 0x7e, 0xbd,
  0xbf, 0x8a, 0xb7, 0xbe, 0xa8, 0xcb, 0xd1, 0x3a, 0x81, 0x49, 0xe0, 0x3e,
  0x58, 0xf8, 0x6a, 0xbd, 0x4e, 0x94, 0x17, 0xbe, 0x28, 0x12, 0x68, 0x3d,
  0x4e, 0x40, 0x26, 0x3d, 0x7c, 0x7b, 0xa3, 0xbe, 0xe7, 0x82, 0xeb, 0x3c,
  0xc8, 0xab, 0xb6, 0xbd, 0x5d, 0xbf, 0xab, 0x3e, 0x62, 0x05, 0x56, 0x3e,
  0x2b, 0x52, 0xcf, 0xbd, 0x26, 0xa5, 0xb1, 0x3d, 0xe9, 0x72, 0x01, 0x3d,
  0x73, 0xa6, 0xd0, 0xbd, 0xfd, 0x0a, 0x1c, 0xbf, 0xb5, 0x2b, 0x10, 0xbe,
  0x7c, 0x63, 0x6b, 0xbd, 0x7a, 0x6f, 0x66, 0xbb, 0xa7, 0xc4, 0x8f, 0xbd,
  0x49, 0x1e, 0xc5, 0xbd, 0x30, 0xa1, 0x98, 0x3c, 0xe8, 0x31, 0x21, 0xbd,
  0xaa, 0x75, 0xe3, 0x3d, 0xb8, 0x8e, 0xfa, 0xbc, 0x56, 0xef, 0x87, 0x3e,
  0x8e, 0x33, 0x6a, 0x3e, 0x1b, 0xf7, 0x4a, 0xbe, 0x52, 0x30, 0x3c, 0x3a,
  0x43, 0x85, 0xc5, 0xbd, 0x36, 0x0e, 0x1c, 0x3d, 0x32, 0xa7, 0xdb, 0xbe,
  0x7f, 0x20, 0xf1, 0xbd, 0x3f, 0xc5, 0x4d, 0xbe, 0x53, 0x2e, 0x15, 0x3e,
  0x3a, 0x60, 0xaf, 0xbd, 0xe8, 0x66, 0xc1, 0xbd, 0xa2, 0xf3, 0xa3, 0x3d,
  0xe5, 0x30, 0x45, 0xbb, 0xe5, 0x6b, 0x0d, 0x3d, 0xd5, 0x6c, 0x94, 0xbd,
  0x4f, 0xf0, 0x50, 0x3e, 0x95, 0x7b, 0x49, 0x3e, 0xdf, 0x3c, 0x69, 0xbe,
  0x30, 0x92, 0x20, 0xbe, 0x68, 0xd6, 0xa2, 0x3d, 0xda, 0x8e, 0xbd, 0x3d,
  0x71, 0xb5, 0x4b, 0xbe, 0x5d, 0xe1, 0xe6, 0xbd, 0x1c, 0x62, 0x0f, 0xbe,
  0xe8, 0xaf, 0xd1, 0xbb, 0x84, 0x76, 0xe2, 0x3c, 0xd2, 0xbf, 0xb3, 0xbd,
  0xe3, 0x05, 0x78, 0x3d, 0xc0, 0xb2, 0xfb, 0x3d, 0x3f, 0xbc, 0x34, 0x3d,
  0xee, 0xdb, 0xcd, 0xbd, 0x72, 0x66, 0x37, 0x3e, 0xaf, 0x92, 0x30, 0x3e,
  0xa2, 0x76, 0x70, 0xbe, 0x34, 0x60, 0xf4, 0xbd, 0xc5, 0x19, 0x1f, 0xbc,
  0xa8, 0xd3, 0x06, 0x3e, 0x46, 0x80, 0x60, 0xbe, 0xb5, 0x10, 0x05, 0xbe,
  0x3c, 0xbc, 0xbd, 0xbc, 0xc9, 0xb0, 0x48, 0x3d, 0xa2, 0x99, 0x3a, 0xbe,
  0xa6, 0xa0, 0xda, 0x3d, 0xd0, 0x70, 0xed, 0x3c, 0x93, 0x94, 0x5f, 0x3e,
  0x58, 0xdf, 0x29, 0x3e, 0xe2, 0x93, 0x9c, 0xbd, 0x13, 0xa9, 0x87, 0x3e,
  0x09, 0xec, 0x5c, 0x3e, 0xa5, 0x64, 0xc8, 0xbd, 0x56, 0x50, 0x2f, 0x3d,
  0x33, 0xb9, 0xda, 0x3d, 0x53, 0xcf, 0x19, 0xbc, 0x71, 0x11, 0xce, 0xbb,
  0x80, 0xe6, 0xc9, 0x3c, 0x0a, 0x75, 0x85, 0xbc, 0x8e, 0x34, 0xa9, 0x3a,
  0x67, 0x81, 0x1e, 0xbd, 0x72, 0x6b, 0x49, 0x3d, 0x5d, 0x0c, 0x13, 0x3d,
  0x81, 0xd9, 0x97, 0xbc, 0x08, 0x22, 0x4d, 0x3d, 0xc7, 0xaf, 0x9d, 0x3d,
  0x8c, 0x49, 0x99, 0x3e, 0x42, 0xce, 0x38, 0x3e, 0xb0, 0x69, 0x01, 0xbd,
  0x02, 0x28, 0x21, 0xbd, 0xe5, 0xa4, 0xb2, 0xbd, 0xf1, 0xcc, 0x0d, 0x3e,
  0x01, 0x73, 0xde, 0x3d, 0x9d, 0xb3, 0x9d, 0x3d, 0x9c, 0x7b, 0xc8, 0x3e,
  0xaf, 0x57, 0xd8, 0x3b, 0xb4, 0x80, 0xea, 0xbc, 0x5d, 0x3e, 0xe3, 0x3d,
  0xb6, 0xfa, 0x73, 0xbe, 0x22, 0x71, 0xfb, 0xb9, 0x08, 0x26, 0x6a, 0x3d,
  0xaa, 0xcc, 0xd8, 0xbb, 0x75, 0x36, 0x59, 0x3e, 0xbe, 0x2c, 0xc8, 0x3d,
  0x57, 0xb4, 0x70, 0xbd, 0x8f, 0xe2, 0xb7, 0x3b, 0x18, 0x4c, 0x67, 0x3d,
  0x1b, 0x2f, 0x6e, 0xbd, 0xc6, 0x0c, 0x88, 0xbd, 0x60, 0x75, 0x0f, 0x3c,
  0xf3, 0x52, 0x40, 0x3e, 0xb9, 0xa6, 0x13, 0xbe, 0xc5, 0xca, 0xa8, 0xbd,
  0x40, 0xa3, 0x19, 0xbc, 0xe9, 0x6d, 0x12, 0xbd, 0x42, 0xbb, 0xf4, 0xbd,
  0xe9, 0xa3, 0x44, 0x3d, 0xe6, 0xe6, 0x1d, 0xbb, 0x75, 0xb8, 0x18, 0x3e,
  0x5c, 0x7f, 0x33, 0x3e, 0x13, 0xcb, 0x33, 0xbe, 0x1c, 0x69, 0x0d, 0xbd,
  0x1e, 0x54, 0x0a, 0xbd, 0x9b, 0x2b, 0x17, 0xbe, 0xfd, 0xd2, 0xc1, 0xbe,
  0xb3, 0xb5, 0x37, 0xbe, 0x94, 0xfd, 0x52, 0x3e, 0x72, 0xe4, 0xfe, 0xbd,
  0x0b, 0xde, 0x5a, 0x3c, 0x4e, 0x3b, 0x71, 0xbd, 0x0b, 0x71, 0x99, 0x3d,
  0xa0, 0x7a, 0x87, 0xbd, 0x68, 0x47, 0x81, 0x3d, 0xbd, 0x15, 0x72, 0x3d,
  0xe3, 0xdb, 0x15, 0x3e, 0x0a, 0x0b, 0x4d, 0x3d, 0x86, 0xc1, 0x1e, 0xbe,
  0x36, 0xe9, 0x4a, 0x3d, 0xdb, 0x17, 0x28, 0x3e, 0x5b, 0x2c, 0x26, 0x3d,
  0xf6, 0x86, 0xcc, 0xbe, 0x67, 0x90, 0xad, 0x3d, 0xb7, 0xc4, 0x8f, 0x3c,
  0x2b, 0x56, 0xbf, 0xbd, 0x99, 0x73, 0xfb, 0xbc, 0x8b, 0x16, 0x66, 0xbd,
  0x24, 0x7d, 0x07, 0x3e, 0x37, 0x3d, 0x22, 0xbd, 0x1d, 0x7c, 0x1f, 0x3e,
  0x5d, 0x6e, 0x04, 0xbb, 0x93, 0xfe, 0x42, 0x3e, 0x13, 0xf7, 0xab, 0x3d,
  0x7e, 0x09, 0x80, 0xbe, 0xc1, 0x56, 0x10, 0x3d, 0x15, 0xf6, 0x47, 0x3d,
  0x92, 0x46, 0x8d, 0x3d, 0xe6, 0xad, 0xc6, 0xbe, 0xd5, 0x1d, 0x3d, 0xbc,
  0xc0, 0x43, 0xa4, 0x3e, 0x07, 0x88, 0x48, 0xbd, 0x38, 0xac, 0x58, 0xbd,
  0x9c, 0xba, 0x01, 0xbd, 0xfa, 0x08, 0x91, 0x3d, 0x93, 0x02, 0xde, 0xbd,
  0x9e, 0x43, 0x24, 0x3e, 0xa2, 0x85, 0x9b, 0xbd, 0xf9, 0xa6, 0x9f, 0x3d,
  0xf8, 0x87, 0xf2, 0x3c, 0xf8, 0x3c, 0x6e, 0xbe, 0x43, 0xa6, 0x0c, 0x3e,
  0x48, 0x4a, 0xcc, 0x3c, 0x3c, 0xe3, 0x97, 0x3c, 0x42, 0x6b, 0x8b, 0xbe,
  0xff, 0x44, 0xe7, 0x3d, 0xcb, 0xec, 0x61, 0xbe, 0xdc, 0x60, 0x65, 0x3e,
  0x44, 0x01, 0x47, 0x3d, 0xd8, 0x34, 0x67, 0x3d, 0xd6, 0x73, 0x82, 0x3e,
  0xc5, 0x66, 0xbf, 0xbd, 0x31, 0x32, 0x2f, 0xbe, 0x16, 0x66, 0x73, 0x3d,
  0x0d, 0x08, 0x17, 0xbe, 0xd6, 0xc4, 0x44, 0x3e, 0xba, 0xbe, 0xf9, 0x3c,
  0xa5, 0xfe, 0x19, 0x3e, 0x85, 0x10, 0x91, 0x3e, 0x02, 0x1e, 0x86, 0xbe,
  0x5f, 0xa3, 0x70, 0xbe, 0x14, 0xbd, 0x9f, 0xbd, 0x13, 0xb2, 0xd6, 0x3d,
  0x1c, 0x07, 0xd6, 0xbd, 0xc2, 0xf4, 0x38, 0x3e, 0xbb, 0x9e, 0xd7, 0x3d,
  0xdd, 0xc4, 0x98, 0xbd, 0x03, 0xb0, 0x0d, 0xbe, 0x51, 0x5e, 0xa6, 0xbd,
  0xf0, 0x3f, 0x44, 0xbe, 0x9a, 0x92, 0xd3, 0xbc, 0x5f, 0x4c, 0x4d, 0xbe,
  0xd7, 0xb8, 0xc4, 0x3d, 0x89, 0xdb, 0x15, 0xbe, 0x63, 0x2d, 0x25, 0xbe,
  0xfa, 0x5d, 0x9e, 0x3d, 0x9c, 0x5e, 0xa2, 0xbd, 0xa7, 0x7b, 0xde, 0xbd,
  0x92, 0xdd, 0x9d, 0xbd, 0xa1, 0xb8, 0xb4, 0x3d, 0xd0, 0x3c, 0xfd, 0xbd,
  0x3b, 0xf1, 0x10, 0xbe, 0x91, 0xad, 0xa7, 0xbd, 0x73, 0x70, 0xcb, 0x3c,
  0xb5, 0xd5, 0x61, 0xbd, 0xfc, 0xb7, 0xef, 0x3b, 0x8d, 0xa6, 0x5d, 0xbe,
  0xd4, 0xb7, 0xb4, 0x3c, 0x87, 0x04, 0x55, 0x3d, 0x14, 0xd6, 0x23, 0xbe,
  0x3d, 0xdd, 0x84, 0x3d, 0x0b, 0x00, 0x85, 0xbd, 0x82, 0x24, 0x09, 0xbe,
  0x9b, 0x88, 0x3c, 0xbe, 0x39, 0x9b, 0x12, 0x3e, 0x59, 0x12, 0x17, 0xbe,
  0xa7, 0x61, 0x67, 0xbe, 0x87, 0x9d, 0x96, 0xbd, 0x12, 0xf7, 0x03, 0xbe,
  0x4e, 0x8a, 0x15, 0x3d, 0x05, 0x05, 0xc1, 0xbd, 0x10, 0x05, 0x4e, 0xbe,
  0x56, 0xf2, 0x4c, 0xbd, 0x10, 0x2b, 0xd5, 0xbd, 0xc2, 0x3d, 0x7f, 0x3d,
  0x27, 0xa2, 0x32, 0xbd, 0xb9, 0x39, 0x9a, 0x3d, 0xc6, 0x50, 0x24, 0xbe,
  0xd6, 0x2d, 0xdb, 0xbd, 0x1f, 0xc4, 0x85, 0x3d, 0xad, 0x68, 0x6a, 0x3d,
  0x2b, 0x11, 0x29, 0xbe, 0x3b, 0x31, 0x57, 0xbe, 0x50, 0xc2, 0x48, 0xbd,
  0xe0, 0xf7, 0x06, 0xbe, 0x4d, 0x9f, 0x52, 0xbe, 0x37, 0xd2, 0x81, 0x3d,
  0x59, 0x93, 0x08, 0xbe, 0xf1, 0x96, 0xa7, 0xbc, 0xe2, 0xdc, 0x61, 0x3d,
  0x20, 0xac, 0xab, 0x3d, 0xf3, 0x1d, 0xb0, 0xbc, 0x6e, 0x45, 0xa2, 0xbd,
  0xf5, 0x76, 0x4c, 0xbe, 0x28, 0x4b, 0xed, 0xbd, 0x39, 0x58, 0xdf, 0xbc,
  0x46, 0x2c, 0xb0, 0xbc, 0xb1, 0x53, 0xf7, 0xbd, 0x9a, 0x8a, 0x7e, 0x3d,
  0x26, 0xd6, 0x5f, 0xbe, 0xf0, 0xcd, 0x68, 0xbd, 0xb6, 0xf2, 0x4a, 0xbd,
  0x79, 0xf2, 0xcf, 0x3d, 0xa8, 0x08, 0xc3, 0x3d, 0xd8, 0xfb, 0x73, 0xbd,
  0x26, 0xd4, 0x17, 0x3d, 0x92, 0xf9, 0x74, 0xbd, 0xab, 0x77, 0xc1, 0xbd,
  0x47, 0xa6, 0x3b, 0x3c, 0xec, 0x98, 0x0a, 0x3c, 0x9f, 0xba, 0x35, 0xbe,
  0x68, 0x74, 0xdc, 0xbd, 0x7d, 0x9c, 0x1f, 0x3d, 0xda, 0x88, 0x97, 0x3d,
  0xaa, 0x87, 0x03, 0xbe, 0xa9, 0x45, 0x05, 0xbe, 0xdc, 0xde, 0x04, 0xbe,
  0xa2, 0xa8, 0x10, 0xbe, 0x88, 0x92, 0x00, 0xbe, 0x61, 0xf7, 0x39, 0xbe,
  0x7e, 0x63, 0x1e, 0xbc, 0x2d, 0x70, 0xe3, 0x3c, 0x1c, 0xc1, 0x7e, 0xbd,
  0x14, 0x62, 0xd2, 0x3d, 0x34, 0xf7, 0x5a, 0x3d, 0xd2, 0x33, 0x20, 0xbd,
  0x92, 0xd6, 0x07, 0xbe, 0x6b, 0xbd, 0x95, 0x3b, 0x31, 0xce, 0x11, 0xbe,
  0x0d, 0xf7, 0x8b, 0xbd, 0x1d, 0xfd, 0x5f, 0xbe, 0x9e, 0x52, 0x23, 0xbe,
  0x6c, 0xdf, 0xe9, 0xbd, 0xc6, 0x2f, 0xb0, 0xbd, 0x3d, 0xab, 0x92, 0x3d,
  0xc0, 0xc6, 0x2e, 0xbc, 0x9a, 0x87, 0x32, 0xbe, 0x85, 0x82, 0xaf, 0xbc,
  0x4f, 0x15, 0x35, 0xbe, 0x75, 0x14, 0x30, 0xbe, 0xfd, 0x6f, 0xdd, 0x3d,
  0x47, 0xb4, 0xc0, 0xbd, 0x25, 0x93, 0x02, 0xbe, 0x21, 0x3c, 0xe7, 0x3c,
  0xbe, 0x5d, 0xef, 0x3d, 0x37, 0x6f, 0x17, 0x3e, 0xf0, 0xc5, 0x47, 0x3d,
  0x7d, 0x95, 0xfa, 0xbd, 0xdc, 0x3d, 0x68, 0x3d, 0xbc, 0x4d, 0x0b, 0xbe,
  0xa1, 0x15, 0x19, 0xbe, 0x09, 0xce, 0x7e, 0xbc, 0x3c, 0x7e, 0x8f, 0xbd,
  0xa1, 0xff, 0xc5, 0xbd, 0xb1, 0x4d, 0x41, 0xbe, 0x69, 0x25, 0x27, 0xbe,
  0xd0, 0x3a, 0x13, 0xbe, 0x6c, 0x11, 0xd8, 0x3d, 0xf1, 0x05, 0x49, 0xbd,
  0xfc, 0x44, 0x0a, 0xbe, 0x59, 0x4c, 0xe1, 0xbd, 0x92, 0xb6, 0xaa, 0x3d,
  0xc1, 0xcb, 0x2d, 0xbd, 0xc9, 0x7e, 0x17, 0xbd, 0x4b, 0x6b, 0x90, 0x3d,
  0xe4, 0x69, 0x3e, 0xbe, 0x77, 0xb9, 0x53, 0x3d, 0x44, 0xeb, 0x26, 0xbe,
  0x06, 0x67, 0x19, 0xbe, 0x6a, 0x5c, 0x17, 0x3d, 0xc8, 0x13, 0x11, 0xbe,
  0xd9, 0x91, 0xbd, 0xbd, 0xab, 0xe5, 0xdf, 0xbd, 0x04, 0xd6, 0xd0, 0xbc,
  0x9c, 0x0d, 0x76, 0xbd, 0xc4, 0x04, 0xcc, 0x3d, 0x20, 0x92, 0xe6, 0xbd,
  0xbb, 0x1b, 0xa0, 0x3d, 0x2b, 0xdb, 0x56, 0xbd, 0x00, 0x1d, 0x5f, 0xbe,
  0x22, 0x51, 0x91, 0xbd, 0x25, 0xce, 0x87, 0x3d, 0xa4, 0xdb, 0xb5, 0x3d,
  0x6b, 0x49, 0x08, 0x3d, 0xd9, 0x50, 0x31, 0xbe, 0x29, 0x11, 0x00, 0xbd,
  0xe4, 0xf1, 0x54, 0x3d, 0xe9, 0xce, 0x1a, 0xbe, 0x1c, 0x72, 0x1a, 0xbd,
  0x13, 0xad, 0x81, 0xbd, 0x00, 0xaf, 0x83, 0xbd, 0xf8, 0xa3, 0x17, 0xbc,
  0x66, 0xcd, 0x21, 0xbe, 0x9c, 0xdd, 0x16, 0xbe, 0x8b, 0x18, 0xe9, 0x3c,
  0xa1, 0xdd, 0xb3, 0xbd, 0x1c, 0x56, 0xbb, 0xbc, 0xfc, 0xca, 0x73, 0x3d,
  0xe0, 0xb4, 0x65, 0xbe, 0x9b, 0x7d, 0x62, 0xbd, 0x78, 0xa6, 0x18, 0xbd,
  0x71, 0xc4, 0x1d, 0xbe, 0xec, 0x21, 0x0d, 0xbd, 0xcb, 0x9b, 0x43, 0xbe,
  0xa9, 0x59, 0x20, 0xbe, 0xe8, 0x54, 0x04, 0x3c, 0x40, 0x25, 0x71, 0x3d,
  0x25, 0xe6, 0x7d, 0x3c, 0x50, 0xdd, 0x8f, 0x3c, 0xcc, 0xd4, 0xeb, 0xbd,
  0xf5, 0x18, 0xf4, 0xbd, 0x26, 0xfc, 0xbe, 0xbd, 0x47, 0x53, 0xfe, 0xbd,
  0x6d, 0x4d, 0x47, 0xbe, 0x1a, 0xeb, 0x4e, 0x3d, 0x49, 0x78, 0x17, 0xbe,
  0x37, 0xb2, 0xad, 0xbd, 0x53, 0x17, 0x9b, 0xbd, 0x6b, 0x1f, 0x6b, 0xbb,
  0xac, 0xab, 0x14, 0xbe, 0x25, 0x99, 0x06, 0x3d, 0xde, 0xfe, 0xd9, 0x3d,
  0x85, 0xe0, 0x33, 0xbe, 0x02, 0xbb, 0x9c, 0x3d, 0x4c, 0xfe, 0x19, 0x3d,
  0x38, 0xd2, 0xc0, 0x3d, 0x7a, 0x66, 0x46, 0xbe, 0xdb, 0xae, 0x9f, 0x3c,
  0x60, 0x0c, 0x8e, 0x3c, 0xc3, 0xa6, 0x90, 0x3d, 0xeb, 0xe6, 0xea, 0xbb,
  0x7f, 0x36, 0x82, 0x3d, 0xc5, 0x4a, 0x4e, 0xbd, 0x74, 0x5d, 0x2e, 0xbe,
  0xac, 0x25, 0x37, 0xbe, 0x46, 0x36, 0x2c, 0xbd, 0x16, 0x7e, 0x36, 0x3d,
  0x1a, 0x30, 0x7e, 0xbd, 0x75, 0x87, 0x0a, 0xbe, 0xd9, 0x29, 0x12, 0xbd,
  0xa3, 0xf2, 0x41, 0xbe, 0x8c, 0xe1, 0x1a, 0x3d, 0x8c, 0xe6, 0x98, 0xbd,
  0xb5, 0xde, 0x61, 0xbd, 0x6a, 0xdf, 0xef, 0xbd, 0x00, 0xa6, 0x9e, 0x3c,
  0x2a, 0x4a, 0xd7, 0x3c, 0xdc, 0x57, 0x9e, 0xbd, 0xe0, 0x41, 0x89, 0xbc,
  0xbc, 0x32, 0x32, 0xbe, 0x7d, 0xc0, 0x21, 0xbe, 0xc9, 0x8d, 0xff, 0xbc,
  0xc7, 0x55, 0xd9, 0xbd, 0x00, 0x58, 0x26, 0xba, 0x16, 0xb2, 0x88, 0x3a,
  0x65, 0x4a, 0x40, 0xbe, 0x17, 0x85, 0x20, 0x3e, 0x8a, 0x59, 0x2c, 0xbe,
  0x27, 0xdc, 0x01, 0xbe, 0x25, 0x35, 0x16, 0xbe, 0xfa, 0x15, 0x29, 0xbe,
  0x64, 0x57, 0x9e, 0x3d, 0x57, 0x24, 0x2e, 0xbe, 0xfc, 0x31, 0x0a, 0x3d,
  0x5b, 0x8a, 0x09, 0xbd, 0x53, 0x12, 0x23, 0x3d, 0x21, 0xbc, 0xa8, 0xbd,
  0x3e, 0xc1, 0x41, 0xbc, 0x31, 0x22, 0x7c, 0x3d, 0xb0, 0xe0, 0x46, 0xbe,
  0x6f, 0x1e, 0xbe, 0xbc, 0x10, 0xe7, 0x6c, 0xbd, 0xf9, 0x0b, 0x78, 0xbd,
  0x5d, 0x21, 0x35, 0x3c, 0xbe, 0xe3, 0x93, 0x3d, 0xc2, 0xd0, 0x82, 0xbd,
  0xdb, 0x76, 0x1b, 0x3d, 0x28, 0x2f, 0xbf, 0xbd, 0xea, 0xf8, 0x34, 0xbe,
  0x32, 0x7c, 0x11, 0xbd, 0x8e, 0xf6, 0x3e, 0xbe, 0x34, 0xbe, 0x1e, 0xbd,
  0x45, 0x28, 0xdf, 0x3c, 0x1b, 0xb4, 0xa5, 0x3d, 0x2c, 0x0c, 0x10, 0xbd,
  0x9f, 0x7f, 0x17, 0x3d, 0x52, 0x89, 0x1c, 0xbd, 0x08, 0x6c, 0xdd, 0xbc,
  0xf2, 0xdc, 0xe4, 0x3d, 0x25, 0x6d, 0xd6, 0x3d, 0x5d, 0xad, 0x84, 0xbd,
  0x24, 0x0d, 0x7a, 0xbe, 0x46, 0x47, 0x2a, 0xbe, 0x64, 0x0a, 0xd8, 0x3c,
  0xf3, 0xc4, 0x9d, 0xbc, 0x5b, 0x92, 0xa2, 0xbd, 0x5b, 0x7d, 0x40, 0x3d,
  0x0b, 0x4b, 0x7a, 0xbd, 0x22, 0x0e, 0x92, 0x3d, 0x91, 0x36, 0x3f, 0xbe,
  0x3a, 0xb0, 0x87, 0x3d, 0xfb, 0xc5, 0x9c, 0x3c, 0x0d, 0x1e, 0x56, 0xbe,
  0xbf, 0x4d, 0x31, 0xbe, 0x9e, 0x5a, 0x72, 0x3c, 0x17, 0xdc, 0x23, 0xbe,
  0xcf, 0x17, 0x8b, 0x3d, 0x36, 0x42, 0xc2, 0xbd, 0x66, 0x64, 0xc9, 0xbd,
  0x6a, 0xb5, 0xb3, 0xbd, 0x34, 0xc7, 0xa2, 0x3d, 0x6b, 0xa0, 0xd7, 0xbc,
  0xb2, 0xa9, 0x17, 0xbe, 0x38, 0x15, 0xd4, 0xbd, 0x56, 0x1d, 0x30, 0x3d,
  0x45, 0x99, 0xc6, 0xbd, 0xc1, 0xc8, 0xfa, 0xbd, 0x57, 0x96, 0x48, 0x3d,
  0x98, 0x3a, 0x36, 0xbe, 0x59, 0x77, 0x83, 0xbc, 0x96, 0x2e, 0xf8, 0xbd,
  0xaf, 0x78, 0x75, 0xbd, 0x3b, 0x7f, 0xc0, 0xbd, 0x0c, 0x10, 0x0a, 0x3c,
  0x44, 0xad, 0xb4, 0xbb, 0x79, 0x38, 0x01, 0xbe, 0x3d, 0x4b, 0x12, 0xbe,
  0xc5, 0xe2, 0x66, 0xbe, 0x84, 0x4d, 0x37, 0x3c, 0xd0, 0x0c, 0xfe, 0xbd,
  0xfd, 0xfb, 0xe0, 0x3d, 0x13, 0x1a, 0x67, 0xbd, 0xec, 0x28, 0x1a, 0xbe,
  0x3b, 0x9f, 0xe2, 0xbd, 0xb7, 0x13, 0xc8, 0xbc, 0xfb, 0x6e, 0x11, 0xbd,
  0x50, 0x3a, 0x14, 0xbe, 0x92, 0x23, 0x89, 0xbd, 0x9e, 0xfa, 0x94, 0xbd,
  0x90, 0xca, 0xf9, 0xbd, 0x14, 0x33, 0x18, 0xbe, 0xec, 0xb3, 0x38, 0xbe,
  0xdc, 0xa1, 0x59, 0x3d, 0xaf, 0x61, 0x88, 0xbd, 0x57, 0xd8, 0xec, 0x3c,
  0x80, 0x80, 0xa3, 0xbd, 0x0f, 0xb8, 0x72, 0x3d, 0xfa, 0xc3, 0x37, 0xbe,
  0x55, 0x59, 0xd0, 0x3c, 0xa8, 0x5c, 0x4d, 0xbd, 0x7a, 0x40, 0x49, 0xbe,
  0x4b, 0xb0, 0x88, 0x3d, 0xc7, 0xab, 0x81, 0xbd, 0x0e, 0xac, 0x64, 0x3d,
  0xe0, 0x95, 0x91, 0xbd, 0xbc, 0xc2, 0xf0, 0xbd, 0x4a, 0x09, 0x02, 0xbe,
  0xad, 0x1f, 0xa8, 0x3d, 0x46, 0xd8, 0x80, 0x3b, 0xe3, 0x2a, 0xf0, 0xbd,
  0xe1, 0x00, 0x8c, 0x3b, 0x64, 0xdc, 0xe4, 0x3b, 0x5b, 0xc1, 0x53, 0xbd,
  0x63, 0x4a, 0x03, 0xbd, 0x05, 0x47, 0x9b, 0x3d, 0x8e, 0xcc, 0xf3, 0x3c,
  0xe0, 0xc7, 0x31, 0x3c, 0x0a, 0x51, 0x33, 0xbd, 0x76, 0xb3, 0xe7, 0xbd,
  0x39, 0x88, 0xc9, 0x3c, 0x66, 0x34, 0xb7, 0xbd, 0x7c, 0xe5, 0x4b, 0x3d,
  0x70, 0xf9, 0x45, 0xbd, 0x8f, 0x8d, 0xe5, 0x3c, 0xd1, 0x06, 0xd5, 0x3d,
  0x90, 0x23, 0xf0, 0xbd, 0xe1, 0x9a, 0x48, 0x3c, 0xb6, 0x7b, 0x40, 0xbd,
  0xb4, 0x12, 0xd2, 0x3d, 0xc4, 0x5c, 0x1b, 0xbe, 0xe0, 0x09, 0x67, 0x3d,
  0xda, 0x48, 0x28, 0xbb, 0x78, 0xcb, 0xdc, 0x3d, 0xc0, 0x4c, 0xf7, 0xbd,
  0x2c, 0xa9, 0xb3, 0x3d, 0x83, 0xc7, 0x0c, 0xbd, 0xa9, 0x8b, 0x14, 0xbd,
  0xd5, 0xb9, 0x49, 0xbe, 0x9c, 0xab, 0x3b, 0xbe, 0x63, 0x6f, 0x00, 0x3e,
  0x7d, 0xff, 0x9c, 0x3d, 0x3a, 0xef, 0x1c, 0xbe, 0xcf, 0x47, 0xbc, 0x3d,
  0x81, 0x72, 0xd5, 0xbd, 0x16, 0xe8, 0x1e, 0xbe, 0xfe, 0x40, 0xb0, 0x3d,
  0x76, 0xc5, 0xcf, 0xbc, 0xd0, 0x43, 0x1b, 0xbe, 0xd0, 0x22, 0x83, 0xbd,
  0xec, 0xc6, 0x22, 0xbe, 0x50, 0x07, 0x3a, 0x3d, 0x38, 0xfb, 0x09, 0xbe,
  0xc3, 0xfc, 0xc7, 0xbd, 0x9a, 0x5b, 0x21, 0x3d, 0xb0, 0x80, 0xa2, 0xbd,
  0x4d, 0xd3, 0xc6, 0xbd, 0x87, 0xd6, 0xb4, 0xbd, 0x59, 0x0e, 0xb7, 0xbd,
  0xfc, 0x59, 0xa2, 0xbc, 0x4a, 0xcc, 0xdd, 0xbb, 0x89, 0x20, 0x37, 0xbe,
  0xa9, 0x78, 0x65, 0xbd, 0xfd, 0xda, 0x14, 0x3e, 0xb2, 0x6c, 0x16, 0x3d,
  0xce, 0x9a, 0x7e, 0x3d, 0xc0, 0xa9, 0x22, 0x3d, 0x4e, 0x6d, 0xb6, 0x3d,
  0x83, 0x34, 0x96, 0xbd, 0x13, 0x88, 0xe6, 0xbd, 0xc4, 0x39, 0x23, 0xbe,
  0xb6, 0x79, 0x1f, 0xbd, 0x24, 0xee, 0x34, 0xbe, 0x49, 0x81, 0x20, 0xbe,
  0x4d, 0x84, 0x4c, 0x3d, 0xf2, 0xf8, 0x1e, 0xbd, 0x81, 0xd2, 0x58, 0x3d,
  0x27, 0xc5, 0x8d, 0x3d, 0x07, 0x06, 0x65, 0x3d, 0x5a, 0x60, 0x81, 0x3c,
  0x9c, 0x38, 0x81, 0x3c, 0x8f, 0x2f, 0x31, 0xbd, 0xf5, 0x32, 0xe4, 0x3c,
  0x56, 0xf9, 0xe5, 0x3c, 0x25, 0x00, 0x85, 0xbd, 0x80, 0x5e, 0x44, 0x3d,
  0x36, 0xc6, 0x19, 0xbd, 0xf3, 0x1c, 0x6a, 0x3d, 0x43, 0x96, 0x39, 0x3c,
  0x13, 0xc1, 0xdd, 0x3d, 0xb2, 0xe1, 0x6b, 0xbe, 0xd7, 0x37, 0x3e, 0xbe,
  0x04, 0x61, 0x23, 0xbe, 0x4d, 0x30, 0x02, 0xbe, 0xcf, 0x97, 0x00, 0xbe,
  0x87, 0xa5, 0x4b, 0xbd, 0x41, 0x2b, 0x8e, 0x3c, 0x2e, 0x2d, 0xe4, 0xbd,
  0x34, 0x6f, 0x31, 0xbe, 0x35, 0xd0, 0x3c, 0xbd, 0x1e, 0x63, 0xce, 0xbd,
  0xbd, 0x1f, 0x11, 0xbd, 0xaf, 0x9f, 0xb6, 0xbc, 0x47, 0xaa, 0x30, 0xbe,
  0x28, 0x58, 0xb4, 0xbd, 0x17, 0x7b, 0x2f, 0xbe, 0x39, 0xcf, 0xb7, 0xbd,
  0xc6, 0xd9, 0x8c, 0xbd, 0x32, 0x84, 0x02, 0xbd, 0x01, 0xda, 0xb3, 0xbc,
  0xa2, 0x09, 0x29, 0xbe, 0xbe, 0x9f, 0xe4, 0xbc, 0x30, 0xc4, 0xf2, 0x3a,
  0xe4, 0x7f, 0x62, 0xbe, 0x4a, 0xe5, 0xb1, 0x3d, 0xc0, 0x1d, 0x5a, 0x3d,
  0xe4, 0x0a, 0x0c, 0x3e, 0xc4, 0x17, 0x10, 0xbe, 0xdc, 0xb0, 0x12, 0xbd,
  0xa4, 0x16, 0x41, 0xbc, 0xc9, 0xb2, 0x40, 0x3d, 0xe6, 0xc9, 0x21, 0xbe,
  0x31, 0x42, 0x8f, 0xbe, 0xaa, 0x75, 0x40, 0xbe, 0xf3, 0xdf, 0x57, 0x3d,
  0xf8, 0x1b, 0x2b, 0xbe, 0xbc, 0xd7, 0x44, 0xbe, 0x6e, 0x6a, 0x8a, 0xbd,
  0x2b, 0x51, 0x9a, 0x3c, 0xd1, 0x25, 0xa8, 0xbd, 0xb4, 0x7d, 0x70, 0xbd,
  0xce, 0x8b, 0xe5, 0x3d, 0x25, 0xba, 0x90, 0xbd, 0x6a, 0xc6, 0x0b, 0xbe,
  0xf5, 0x83, 0x2c, 0xbe, 0x32, 0x4b, 0x23, 0x3e, 0x6a, 0xba, 0x6c, 0xbd,
  0x53, 0x8a, 0x96, 0x3a, 0x13, 0x9f, 0xeb, 0x3d, 0x7d, 0xf4, 0x03, 0xbe,
  0x00, 0x4e, 0x1e, 0x3e, 0x22, 0xd2, 0x0d, 0xbe, 0x04, 0x6e, 0xaa, 0x3d,
  0xdb, 0x0d, 0x10, 0x3d, 0x99, 0x9c, 0x3e, 0xbe, 0xcf, 0xe3, 0x48, 0x3d,
  0x46, 0xe5, 0x0e, 0xbd, 0x0e, 0x56, 0x5e, 0xbe, 0xf3, 0x1e, 0x6e, 0x3e,
  0x4b, 0xf1, 0x56, 0x3d, 0x8d, 0xb3, 0x2f, 0xbd, 0xcc, 0x07, 0xa3, 0x3d,
  0x78, 0x79, 0x7f, 0xba, 0xe7, 0x22, 0xd9, 0x3d, 0x1e, 0xe2, 0x7a, 0xbe,
  0x2e, 0x21, 0x60, 0xbc, 0xaa, 0x1e, 0x59, 0xbe, 0xfc, 0x13, 0x2d, 0xbe,
  0x06, 0x5b, 0x7e, 0xbd, 0xdb, 0xf2, 0x66, 0xbe, 0xe5, 0x91, 0x12, 0x3b,
  0x1e, 0x6d, 0x27, 0x3d, 0x32, 0x2c, 0x88, 0x3d, 0x02, 0xc3, 0x86, 0xbe,
  0x5e, 0x32, 0x6b, 0x3e, 0x60, 0xcd, 0x87, 0x3d, 0xfd, 0x28, 0xdb, 0xbd,
  0x03, 0xe4, 0x49, 0xbe, 0x64, 0x98, 0x52, 0xbe, 0x9e, 0xe1, 0x71, 0xbe,
  0xd4, 0x65, 0x9b, 0xbe, 0xd2, 0x3d, 0x83, 0xbd, 0xec, 0xd1, 0x2b, 0xbe,
  0x72, 0x4a, 0xe5, 0xbd, 0x77, 0x13, 0xf5, 0xbd, 0x65, 0xa6, 0x9d, 0xbd,
  0x4d, 0x51, 0x0f, 0xbe, 0xce, 0xe1, 0x25, 0x3d, 0x75, 0xc3, 0x8e, 0x3d,
  0x3f, 0x06, 0x4f, 0xbe, 0xeb, 0xb6, 0xb6, 0xbd, 0x62, 0xf7, 0x45, 0xbd,
  0x3e, 0x6b, 0xbf, 0xbd, 0xd5, 0xda, 0x81, 0xbd, 0x02, 0xa2, 0xdb, 0xbd,
  0x29, 0x52, 0xd7, 0xbd, 0x9a, 0x7a, 0xc2, 0xbe, 0xf2, 0xe3, 0x0f, 0x3d,
  0x7f, 0x48, 0x99, 0xbe, 0xd1, 0x67, 0x83, 0xbe, 0xb9, 0x49, 0xce, 0xbe,
  0xfe, 0xb5, 0x61, 0xbe, 0x21, 0xdf, 0x85, 0xbd, 0x24, 0x6a, 0x87, 0x3d,
  0x0c, 0xb2, 0x46, 0x3d, 0xca, 0xa7, 0xde, 0xbd, 0xa9, 0x35, 0x91, 0x3d,
  0xaf, 0x03, 0xd7, 0x3c, 0xe6, 0x4a, 0x3a, 0xbd, 0xc4, 0xbc, 0x85, 0x3b,
  0xea, 0xd2, 0x81, 0xbe, 0x82, 0x02, 0x48, 0xbe, 0x65, 0xde, 0x9a, 0xbe,
  0xb2, 0xfa, 0x93, 0x3d, 0x8b, 0x3e, 0x7e, 0xbe, 0x63, 0xd3, 0xae, 0xbc,
  0xca, 0x04, 0x36, 0xbe, 0x4b, 0xea, 0x13, 0xbe, 0x6a, 0x46, 0x4e, 0xbd,
  0x42, 0xe1, 0x14, 0x3d, 0x80, 0xfd, 0x7a, 0xbe, 0x99, 0x29, 0x83, 0xbd,
  0xe2, 0x39, 0x91, 0x3d, 0xbc, 0xdf, 0x94, 0x3d, 0xfe, 0xf3, 0x37, 0xbd,
  0xcd, 0x61, 0x8d, 0x3e, 0xd0, 0x5a, 0xa5, 0xbe, 0x1d, 0x36, 0x13, 0xbe,
  0x46, 0xba, 0x70, 0xbe, 0xeb, 0x2d, 0x58, 0x3d, 0xbc, 0x4e, 0x22, 0xbe,
  0xff, 0xb5, 0xc2, 0x3d, 0x6e, 0x29, 0x6b, 0xbe, 0x2b, 0x88, 0x3c, 0x3e,
  0xb3, 0x8d, 0x63, 0x3e, 0x7d, 0x6a, 0xaa, 0xbc, 0x11, 0xb0, 0x56, 0xbe,
  0x68, 0xd1, 0x3e, 0xbe, 0xf8, 0x38, 0xc7, 0xbd, 0xef, 0xa0, 0x9a, 0xbd,
  0xec, 0xec, 0x6a, 0xbc, 0x25, 0x56, 0x62, 0x3e, 0x34, 0x2e, 0xec, 0xbd,
  0xca, 0xd0, 0x9a, 0xbe, 0xf6, 0x3c, 0xf9, 0x3c, 0xef, 0xfe, 0x60, 0xbc,
  0x48, 0xc1, 0x7b, 0xbe, 0x20, 0xe8, 0xfa, 0x3c, 0xb4, 0x03, 0xb6, 0xbe,
  0xd2, 0x87, 0x36, 0x3e, 0xe4, 0xc5, 0xc7, 0xbc, 0x63, 0x11, 0x5c, 0x3c,
  0xf8, 0x60, 0x0d, 0xbe, 0xa3, 0x92, 0x50, 0xbd, 0xe0, 0x73, 0x2f, 0x3e,
  0xb7, 0x1e, 0xba, 0x3d, 0x9a, 0x98, 0xc9, 0x3c, 0x94, 0xd2, 0x79, 0x3e,
  0xeb, 0xe5, 0x67, 0xbe, 0xe2, 0x98, 0x1d, 0xbe, 0x28, 0xbe, 0xcd, 0xbc,
  0xe0, 0xb8, 0x41, 0xbe, 0x74, 0xbe, 0xa4, 0xbe, 0x15, 0x07, 0x0d, 0xbe,
  0x60, 0x81, 0x96, 0xbe, 0x9b, 0x9e, 0xb8, 0x3e, 0x86, 0x44, 0x88, 0xbd,
  0xa4, 0x96, 0x99, 0xbd, 0x00, 0x9f, 0x90, 0xbe, 0xf0, 0x81, 0xc6, 0xbd,
  0x36, 0x49, 0xf1, 0xbc, 0xc1, 0x36, 0x06, 0x3e, 0x7e, 0x72, 0x87, 0xbd,
  0xad, 0xd2, 0x55, 0x3d, 0xdd, 0x0b, 0x25, 0xbe, 0x14, 0x77, 0xe0, 0x3d,
  0xda, 0x84, 0xb8, 0x3d, 0x7b, 0x9d, 0xc2, 0xbd, 0x92, 0xf6, 0x0a, 0xbe,
  0x02, 0x42, 0xdc, 0xbd, 0x9d, 0x6f, 0x08, 0xbd, 0xa8, 0xc2, 0xc2, 0x3e,
  0xfb, 0x32, 0x13, 0x3d, 0xa6, 0xaf, 0x45, 0xbe, 0x77, 0xba, 0x8f, 0xbe,
  0x6a, 0x0e, 0x71, 0xbd, 0x04, 0xc8, 0x4d, 0x3e, 0x08, 0xa2, 0xd9, 0x3d,
  0x76, 0xb7, 0x53, 0xbe, 0x67, 0xb8, 0x9d, 0xbd, 0xa5, 0x2a, 0x47, 0x3e,
  0x46, 0x04, 0x03, 0xbd, 0xa2, 0xb0, 0x04, 0x3e, 0x2d, 0x58, 0x0c, 0xbe,
  0xde, 0x7a, 0xb7, 0xbd, 0x31, 0xb9, 0xf1, 0x3c, 0x23, 0xaa, 0x3d, 0xbe,
  0x25, 0x75, 0x72, 0x3e, 0x9f, 0x70, 0xaa, 0x3c, 0xae, 0x84, 0x66, 0xbe,
  0xd8, 0x9c, 0xfb, 0xbd, 0xdc, 0x6f, 0xd5, 0xbb, 0xbd, 0xce, 0xe2, 0x3d,
  0x10, 0xbb, 0x81, 0x3d, 0x33, 0x08, 0x0a, 0xbe, 0x45, 0xf5, 0x3b, 0xbe,
  0x27, 0x6c, 0x5b, 0x3e, 0x45, 0x54, 0x98, 0xbc, 0xc4, 0x4e, 0xdf, 0x3c,
  0xf5, 0xc0, 0x44, 0xbe, 0x7e, 0x71, 0x9e, 0xbd, 0x14, 0x7d, 0x7a, 0xbd,
  0xe8, 0xde, 0xe5, 0xbd, 0xdc, 0x62, 0xc8, 0x3e, 0xd3, 0xe2, 0x0c, 0xbe,
  0xf9, 0x5d, 0x9a, 0xbc, 0x35, 0x30, 0x2a, 0xbd, 0xc5, 0x5e, 0x9f, 0x3b,
  0x75, 0x70, 0x34, 0x3e, 0x4b, 0xb5, 0x85, 0x3e, 0x56, 0xf1, 0xed, 0xbb,
  0xc6, 0xed, 0x67, 0xbe, 0x4f, 0x54, 0x83, 0x3e, 0x53, 0x3f, 0x7a, 0xbe,
  0x66, 0x84, 0x68, 0xbd, 0x99, 0x44, 0xb0, 0xbe, 0x84, 0xe5, 0x3c, 0xbd,
  0xbf, 0xf6, 0x87, 0x3d, 0x7d, 0x73, 0xea, 0xbd, 0x44, 0x6b, 0xc1, 0x3d,
  0x0a, 0x73, 0xe3, 0xbb, 0xe6, 0x43, 0x48, 0x3e, 0xf2, 0x4c, 0x8c, 0xbd,
  0x6b, 0x7a, 0xa0, 0xbd, 0x1a, 0x7c, 0x82, 0x3b, 0x19, 0xcc, 0x4a, 0xbe,
  0x30, 0x76, 0x97, 0x3d, 0x4f, 0x2e, 0xf9, 0xbd, 0x3b, 0xa3, 0xdc, 0xbd,
  0x1d, 0xba, 0xe1, 0xbe, 0xa7, 0x3c, 0x09, 0xbf, 0x13, 0xb2, 0x23, 0xbe,
  0xc0, 0x7b, 0x08, 0xbe, 0xfb, 0xe0, 0x9d, 0xbe, 0x06, 0x04, 0x33, 0xbc,
  0x5e, 0x29, 0x01, 0xbf, 0x33, 0xea, 0x71, 0x3c, 0x2a, 0x21, 0x26, 0x3e,
  0xf9, 0xd7, 0xd2, 0xbd, 0x87, 0x69, 0x8d, 0xbe, 0x92, 0x6a, 0xaa, 0xbc,
  0x36, 0x53, 0x10, 0xbf, 0x05, 0xcc, 0x47, 0x3d, 0xa1, 0xc4, 0x3d, 0xbe,
  0xdc, 0xdd, 0x13, 0xbf, 0x00, 0xb5, 0x43, 0xbe, 0x9e, 0x43, 0x24, 0xbe,
  0x36, 0xb7, 0xbb, 0x3d, 0x94, 0xbb, 0x8e, 0xbe, 0x31, 0x98, 0xfe, 0xbe,
  0x63, 0xef, 0x1e, 0x3d, 0x61, 0x17, 0xdc, 0xbe, 0x58, 0xfe, 0xeb, 0x3d,
  0x40, 0xcb, 0x19, 0x3d, 0x4c, 0xdb, 0x8f, 0xbe, 0x46, 0xa9, 0x8c, 0xbe,
  0x88, 0x34, 0x60, 0x3b, 0xa5, 0xcc, 0x35, 0xbe, 0x93, 0xcd, 0xdf, 0xbb,
  0x92, 0x6d, 0x0b, 0xbf, 0xb0, 0x66, 0x03, 0x3d, 0xcb, 0xbb, 0x6b, 0x3d,
  0x79, 0x04, 0x80, 0xbd, 0x1b, 0x1d, 0xcd, 0x3c, 0x50, 0xb3, 0xb9, 0x3d,
  0xd6, 0x98, 0x6a, 0xbe, 0xdf, 0x0d, 0x6d, 0x3e, 0x13, 0x83, 0x2a, 0xbe,
  0x39, 0x3a, 0xad, 0xbe, 0xd2, 0xce, 0x0b, 0xbb, 0x5c, 0x5f, 0x9c, 0xbe,
  0xa9, 0x67, 0x44, 0x3e, 0x2f, 0x19, 0x65, 0x3e, 0x3c, 0xa2, 0x9f, 0xbd,
  0x02, 0x4a, 0xfb, 0xbc, 0xef, 0x2b, 0xdf, 0x3d, 0x32, 0x3c, 0x6a, 0x3c,
  0x41, 0xfa, 0x3c, 0x3d, 0x83, 0xfe, 0x4d, 0xbe, 0x81, 0x38, 0xb8, 0xbd,
  0x33, 0x60, 0xf6, 0x3c, 0xf4, 0xcc, 0xc1, 0x3d, 0xaa, 0x17, 0x01, 0x3e,
  0x95, 0x90, 0x47, 0xbd, 0x2e, 0x2c, 0xc0, 0xbd, 0xb3, 0x50, 0x3d, 0x3d,
  0x47, 0x04, 0x87, 0x3c, 0xb5, 0x60, 0x86, 0x3e, 0x7e, 0x8f, 0x80, 0xbb,
  0xf3, 0x96, 0xe9, 0xbd, 0x21, 0x85, 0x30, 0x3c, 0x3b, 0x97, 0xba, 0x3d,
  0x84, 0x63, 0x8f, 0xbc, 0x30, 0xc2, 0xc7, 0x3d, 0x4d, 0x7c, 0x3a, 0xbe,
  0xae, 0xd3, 0x99, 0xbd, 0x00, 0xe3, 0x99, 0x3d, 0x1b, 0x22, 0x00, 0x3e,
  0xb9, 0x5e, 0x85, 0x3e, 0xed, 0x00, 0x8b, 0xbe, 0x60, 0xe4, 0xc3, 0xbd,
  0xe0, 0x24, 0x8f, 0xbd, 0x76, 0x56, 0x40, 0x3e, 0x8c, 0x90, 0x01, 0xbc,
  0x74, 0x33, 0x21, 0xbe, 0xdd, 0x5b, 0x3c, 0xbd, 0xc4, 0xc3, 0x65, 0x3a,
  0xef, 0x48, 0xde, 0x3d, 0x7e, 0xec, 0x0a, 0xbe, 0x5b, 0xf0, 0xbc, 0x3d,
  0x98, 0x90, 0xe8, 0xbd, 0xec, 0xac, 0xc7, 0x3c, 0x65, 0xb4, 0xc9, 0x3d,
  0x72, 0xc3, 0xa9, 0x3d, 0x13, 0x99, 0x56, 0x3e, 0xb3, 0x60, 0x1a, 0xbe,
  0x15, 0x5e, 0xa6, 0xbc, 0xae, 0x64, 0xc3, 0xbd, 0x91, 0x9b, 0x5c, 0x3e,
  0xe6, 0x55, 0x3c, 0xbe, 0x82, 0xaf, 0x2e, 0xbe, 0x4e, 0x19, 0x11, 0x3d,
  0x5e, 0xfa, 0xb0, 0xbc, 0x3e, 0xaf, 0x44, 0x3e, 0xe0, 0x1f, 0xc4, 0xbd,
  0x4b, 0xec, 0x2a, 0x3e, 0x32, 0xc7, 0xa8, 0xbd, 0x59, 0x5f, 0x87, 0x3d,
  0x00, 0x81, 0x27, 0xbd, 0xea, 0xd9, 0x21, 0x3e, 0x9e, 0xa0, 0x9e, 0x3e,
  0x25, 0x28, 0x90, 0xbe, 0xa2, 0xe4, 0x80, 0xbd, 0xe6, 0x7b, 0x08, 0xbc,
  0x4a, 0x00, 0x9c, 0x3e, 0x7e, 0xd6, 0x78, 0xbd, 0x08, 0x07, 0xe6, 0xbd,
  0x6f, 0x8d, 0x33, 0x3d, 0xaf, 0x9b, 0x01, 0xbe, 0x0c, 0x9e, 0x80, 0x3d,
  0xa6, 0xa9, 0x25, 0xbe, 0x31, 0x88, 0xd8, 0x3d, 0xf6, 0x03, 0x8c, 0xbd,
  0x1e, 0x35, 0x81, 0xbd, 0x0e, 0xf5, 0x8f, 0xbd, 0x4b, 0xdc, 0xa1, 0x3d,
  0x35, 0x59, 0x6d, 0x3e, 0xb6, 0x47, 0x5d, 0xbd, 0x96, 0xe8, 0x8f, 0xbd,
  0x26, 0xe0, 0x4b, 0xbd, 0xd7, 0x18, 0x9c, 0x3e, 0x67, 0x78, 0x92, 0x3c,
  0xa0, 0xab, 0x80, 0xbd, 0xda, 0xde, 0x4f, 0x3a, 0x11, 0x54, 0x51, 0xbd,
  0x2c, 0xc7, 0xbc, 0x3d, 0xf4, 0xa4, 0x3e, 0xbd, 0xcf, 0x12, 0x2f, 0x3d,
  0xf5, 0x05, 0x61, 0xbd, 0x80, 0x12, 0xe5, 0x3c, 0x8e, 0xf1, 0x7e, 0xbd,
  0xba, 0xdb, 0x75, 0x3d, 0xee, 0xe9, 0x6e, 0x3e, 0x4b, 0x20, 0x52, 0xbe,
  0x04, 0x0b, 0xc1, 0xbc, 0x65, 0x33, 0x90, 0xbd, 0xcc, 0xc7, 0xbe, 0x3e,
  0x89, 0x39, 0x21, 0xbd, 0x3c, 0x76, 0x40, 0xbc, 0x18, 0xf1, 0xc2, 0x3d,
  0xf7, 0xcc, 0x29, 0xbd, 0x68, 0x60, 0x37, 0x3d, 0xa5, 0x20, 0x27, 0xbe,
  0xbb, 0x6f, 0x91, 0x3d, 0xc8, 0xb2, 0xac, 0xbd, 0x58, 0x21, 0x97, 0x3d,
  0xe6, 0x1e, 0xd7, 0xbc, 0x3c, 0x23, 0x6c, 0xbd, 0x54, 0xc4, 0x93, 0x3e,
  0xea, 0xe1, 0x64, 0xbd, 0xf7, 0xee, 0x80, 0xbd, 0x87, 0x49, 0xc6, 0xbd,
  0x0d, 0x5c, 0x61, 0x3e, 0x07, 0xb5, 0x30, 0xbe, 0x59, 0x2c, 0x2e, 0xbe,
  0x2a, 0x59, 0xca, 0xbb, 0x62, 0x57, 0x4d, 0xbc, 0x31, 0x44, 0x35, 0x3d,
  0x70, 0xd9, 0x35, 0xbe, 0x41, 0x12, 0x91, 0x3e, 0xff, 0x41, 0xd3, 0xbd,
  0xb7, 0x74, 0xb5, 0xbc, 0x38, 0x46, 0xdf, 0x3c, 0x01, 0xce, 0xc7, 0x3d,
  0x8e, 0x74, 0x47, 0x3e, 0x48, 0xc3, 0x18, 0xbc, 0xdf, 0xcb, 0x0d, 0xbe,
  0x8a, 0xe9, 0x8e, 0xbb, 0x7f, 0xa6, 0xca, 0x3e, 0x24, 0xe2, 0x47, 0x3d,
  0xe3, 0x69, 0x0b, 0xbd, 0x91, 0xde, 0x57, 0x3d, 0x2e, 0x14, 0xd4, 0x39,
  0xd4, 0x2f, 0x2c, 0x3d, 0x67, 0x2b, 0x88, 0xbe, 0x84, 0xab, 0x1f, 0x3e,
  0xe9, 0x4b, 0xc7, 0xbd, 0xa0, 0x89, 0x3a, 0xbd, 0x34, 0x37, 0x11, 0x3e,
  0x74, 0xce, 0xa4, 0x3d, 0x86, 0xdc, 0xcf, 0x3e, 0x37, 0x5c, 0xb5, 0xb9,
  0x1b, 0xde, 0xfd, 0xbc, 0x7b, 0x9c, 0xd5, 0xbc, 0x5c, 0x70, 0xd4, 0x3e,
  0x96, 0xf6, 0x82, 0xbe, 0xab, 0x3a, 0x2b, 0xbe, 0x90, 0x17, 0x37, 0xbe,
  0xdc, 0x76, 0xa8, 0x3b, 0xe2, 0xde, 0xf0, 0x3d, 0xf2, 0x73, 0xd6, 0xbe,
  0xbe, 0xa2, 0xb8, 0x3e, 0x6d, 0x7c, 0x25, 0xbe, 0xc4, 0x57, 0x0a, 0xbe,
  0x18, 0x85, 0xa5, 0x3e, 0x51, 0x3d, 0x20, 0x3e, 0x80, 0x44, 0xe5, 0xbd,
  0x78, 0x6a, 0x6a, 0xbb, 0x27, 0x5b, 0x9a, 0xbd, 0xe2, 0xfe, 0xc1, 0xbc,
  0x27, 0x64, 0x82, 0x3e, 0xeb, 0x6c, 0x9a, 0xbe, 0x48, 0x3f, 0x22, 0x3d,
  0x0e, 0x19, 0xb3, 0x3d, 0x2c, 0x15, 0x6f, 0x3c, 0xbc, 0xa0, 0xbc, 0xbc,
  0x76, 0x1d, 0xe9, 0xbe, 0x7c, 0x67, 0xf8, 0xbd, 0xe7, 0x73, 0xc8, 0xbe,
  0xcb, 0xd4, 0x49, 0xbe, 0xb9, 0x8d, 0x16, 0xbc, 0x15, 0xda, 0x09, 0x3e,
  0x27, 0xb5, 0x86, 0xbe, 0xaf, 0xa0, 0x95, 0x3d, 0x97, 0x47, 0xb2, 0xbe,
  0x76, 0x52, 0xc8, 0xbc, 0x28, 0xf4, 0xa8, 0x3e, 0x90, 0x47, 0xb4, 0xbe,
  0xab, 0x19, 0x40, 0xbd, 0x5f, 0xc0, 0xed, 0xbc, 0xdb, 0xa3, 0xfc, 0x3c,
  0x7a, 0x09, 0x2a, 0x3c, 0x66, 0x76, 0x17, 0xbf, 0xf0, 0x16, 0x01, 0x3e,
  0x43, 0x31, 0x06, 0xbf, 0xae, 0xc5, 0xe1, 0xbd, 0x52, 0x05, 0x91, 0xbe,
  0xc3, 0x8c, 0x38, 0x3d, 0xe9, 0x51, 0xbb, 0xbe, 0x3f, 0x16, 0x04, 0xbe,
  0xa2, 0x57, 0xfe, 0xbe, 0x15, 0xf5, 0x6a, 0xbd, 0x9d, 0x1a, 0xd6, 0x3e,
  0x3d, 0x63, 0x08, 0x3b, 0x49, 0x2b, 0xee, 0x3c, 0x37, 0x12, 0x15, 0xbf,
  0xbd, 0x53, 0xd3, 0x3d, 0xbd, 0xbe, 0xae, 0xbe, 0x29, 0xc0, 0x02, 0xbf,
  0x00, 0x15, 0x8e, 0xbe, 0x5d, 0xd8, 0xb1, 0xbd, 0xb7, 0x85, 0x20, 0xbc,
  0x30, 0x05, 0x4f, 0xbf, 0x47, 0x16, 0x34, 0xbf, 0x77, 0xaf, 0x35, 0xbd,
  0x86, 0x4e, 0xe5, 0xbe, 0xd9, 0x87, 0x1b, 0xbf, 0x25, 0x12, 0xb8, 0x3c,
  0xbb, 0x26, 0xbc, 0xbd, 0xe9, 0x99, 0xc5, 0xbe, 0x71, 0xd4, 0x64, 0x3c,
  0x5c, 0xdc, 0x3c, 0xbf, 0x27, 0x64, 0xbe, 0x3d, 0xb5, 0xb5, 0x4a, 0x3f,
  0x37, 0x0e, 0xab, 0x3e, 0x66, 0x8d, 0x94, 0x3e, 0xc9, 0xfc, 0xb0, 0x3e,
  0x20, 0x1e, 0xb3, 0xbe, 0xde, 0x79, 0xd2, 0x3d, 0x7d, 0x68, 0x5a, 0x3d,
  0x51, 0x0b, 0xf2, 0xbd, 0x5a, 0x3d, 0x45, 0x3f, 0x60, 0x81, 0xaa, 0x3c,
  0x31, 0x5f, 0xdd, 0xbd, 0xdb, 0x21, 0xdd, 0x3d, 0x47, 0x98, 0x59, 0x3f,
  0x5d, 0xaa, 0x55, 0xbc, 0x2c, 0xf1, 0x9a, 0x3e, 0x19, 0xaf, 0xa0, 0xbd,
  0x5c, 0x88, 0xc2, 0xbe, 0x45, 0xd3, 0x8f, 0xbe, 0x5f, 0xc6, 0xa2, 0xbe,
  0x2e, 0xc3, 0xff, 0xbe, 0xa2, 0xdd, 0x5a, 0xbe, 0xa9, 0x11, 0x8f, 0xbe,
  0x08, 0x1e, 0x7b, 0xbf, 0xbd, 0x13, 0xd6, 0xbd, 0xf4, 0xb8, 0x3e, 0x3d,
  0xe9, 0x44, 0x42, 0x3e, 0xd1, 0x2a, 0x78, 0x3c, 0x1c, 0xb2, 0xe2, 0x3b,
  0x29, 0x52, 0x8a, 0x3e, 0xb8, 0x9e, 0x3b, 0x3e, 0x6c, 0xa2, 0x02, 0xbf,
  0xbc, 0xcf, 0x35, 0x3d, 0x68, 0x20, 0x4e, 0xbe, 0x77, 0x47, 0x1e, 0xbf,
  0xbc, 0x5e, 0x93, 0xbe, 0xcc, 0x76, 0xeb, 0xbe, 0x6d, 0xab, 0x8a, 0xbc,
  0x62, 0xfc, 0xf3, 0xbe, 0x57, 0xbb, 0x86, 0xbf, 0x44, 0x09, 0x3b, 0x3e,
  0x0c, 0xcf, 0x8f, 0xbe, 0x99, 0x86, 0x9d, 0x3d, 0x22, 0x3f, 0x91, 0x3d,
  0xb9, 0x71, 0x85, 0xbe, 0x1a, 0xad, 0x9a, 0x3e, 0xd3, 0x37, 0xc8, 0x3d,
  0x93, 0x54, 0xdf, 0xbe, 0xca, 0xa9, 0x9a, 0x3d, 0x22, 0xe3, 0x70, 0x3d,
  0x4c, 0xca, 0xaf, 0xbe, 0xd6, 0xa0, 0x46, 0xbf, 0xd4, 0xb2, 0x0d, 0xbf,
  0x99, 0x8a, 0xdf, 0x3d, 0xf2, 0xdd, 0x87, 0xbe, 0xf9, 0x59, 0x60, 0xbf,
  0x0f, 0x22, 0x13, 0x3e, 0x31, 0x2d, 0xc7, 0xbe, 0xc1, 0xe5, 0x5e, 0xbd,
  0xf2, 0x01, 0x13, 0x3d, 0x99, 0x26, 0x0e, 0xbe, 0x66, 0x79, 0xcb, 0x3d,
  0x21, 0x97, 0xd2, 0x3d, 0x3b, 0xf8, 0xa4, 0xbe, 0xa4, 0x66, 0xc7, 0x3d,
  0x64, 0xea, 0x52, 0x3e, 0x31, 0xbb, 0x86, 0xbe, 0xa9, 0x86, 0xf4, 0xbe,
  0x65, 0x94, 0x6f, 0xbe, 0xc8, 0x04, 0x80, 0xbd, 0xfd, 0x17, 0x7d, 0xbe,
  0xd8, 0xc6, 0x1b, 0xbf, 0x28, 0x57, 0x3c, 0x3e, 0x8a, 0x92, 0x08, 0xbf,
  0x83, 0x75, 0x65, 0x3c, 0x2e, 0x0e, 0xf9, 0x3c, 0x5d, 0x88, 0x3f, 0x3d,
  0x6d, 0x94, 0xcc, 0x3d, 0x02, 0x00, 0x8c, 0x3e, 0xf6, 0xa7, 0x33, 0xbf,
  0xcd, 0x6e, 0x99, 0x3d, 0x23, 0xd4, 0x7f, 0x3d, 0xf6, 0x62, 0x40, 0xbe,
  0xc5, 0xe1, 0x1d, 0xbf, 0xce, 0xa1, 0x4a, 0x3d, 0xbf, 0x2a, 0xa7, 0x3c,
  0x7c, 0x48, 0x97, 0xbd, 0xd6, 0xee, 0x16, 0xbf, 0x32, 0x0b, 0x0a, 0x3e,
  0x2c, 0x83, 0x0a, 0xbf, 0xf9, 0x6e, 0xa2, 0x3d, 0x85, 0x1b, 0x1c, 0x3c,
  0xf6, 0x3e, 0x23, 0xbc, 0x88, 0x22, 0x1c, 0x3d, 0x6a, 0x91, 0x28, 0x3e,
  0x9d, 0xa0, 0x42, 0xbf, 0x11, 0x1c, 0x50, 0x3d, 0xd7, 0x43, 0x9b, 0x3d,
  0x97, 0x77, 0xa5, 0x3d, 0xdd, 0xc1, 0x61, 0xbf, 0x23, 0x2b, 0x49, 0xbe,
  0x75, 0x2a, 0xc3, 0xbd, 0xaf, 0x78, 0x5a, 0xbd, 0x69, 0xdf, 0xf0, 0xbe,
  0xf3, 0x88, 0xf6, 0x3d, 0x2a, 0x46, 0x6d, 0xbe, 0x0b, 0x5f, 0x5a, 0x3d,
  0xdc, 0x44, 0xdc, 0x3c, 0xf7, 0x03, 0xbf, 0x3d, 0x5b, 0xe0, 0xa0, 0x3e,
  0x67, 0xe3, 0x60, 0x3e, 0x10, 0xbe, 0x10, 0xbf, 0x03, 0xce, 0x81, 0x3d,
  0x48, 0x8e, 0xe7, 0xbc, 0x04, 0xc2, 0xca, 0xbd, 0xca, 0x7f, 0xe7, 0xbe,
  0x3c, 0x03, 0x9c, 0xbe, 0x58, 0x64, 0xaa, 0xbd, 0x90, 0x1d, 0x40, 0x3b,
  0xe6, 0x38, 0x00, 0xbf, 0xa9, 0x2e, 0x6f, 0x3c, 0x50, 0x15, 0x77, 0xbe,
  0xd5, 0x44, 0x14, 0x3c, 0x01, 0x65, 0xac, 0x3c, 0x75, 0xee, 0x38, 0xbd,
  0xc1, 0x7d, 0xae, 0x3e, 0xe8, 0xb9, 0x3f, 0x3e, 0x69, 0x07, 0xf3, 0xbe,
  0xef, 0x01, 0x5a, 0x3d, 0x01, 0x69, 0x06, 0x3e, 0x6b, 0x88, 0x98, 0xbe,
  0x06, 0x63, 0xb4, 0xbe, 0xf5, 0xb5, 0xaa, 0xbe, 0x50, 0xcf, 0x80, 0xbe,
  0x5f, 0x99, 0xe8, 0x3c, 0xea, 0xe8, 0x39, 0xbf, 0x38, 0xa8, 0x31, 0xbe,
  0x86, 0x26, 0xe8, 0xbe, 0xa0, 0x5f, 0x7b, 0x3d, 0x08, 0xa0, 0x60, 0xbb,
  0x71, 0xd9, 0xf9, 0x3d, 0x79, 0xb8, 0x24, 0x3e, 0x67, 0x26, 0x57, 0x3e,
  0x70, 0xe1, 0x6f, 0xbf, 0xde, 0xb4, 0x08, 0x3c, 0xca, 0x75, 0xe9, 0xbc,
  0x5c, 0x01, 0x87, 0xbd, 0x6c, 0x17, 0x47, 0xbf, 0xbd, 0x3e, 0xf2, 0xbe,
  0x93, 0x84, 0x73, 0xbe, 0xd4, 0x7c, 0xe1, 0xbd, 0x39, 0x45, 0x28, 0xbf,
  0x2b, 0x52, 0x26, 0x3d, 0xcb, 0x2e, 0x73, 0xbe, 0x74, 0xb7, 0xd4, 0x3d,
  0xbd, 0xe1, 0x90, 0x3c, 0x29, 0x04, 0xbc, 0xbc, 0x87, 0x42, 0x5e, 0x3e,
  0x94, 0x89, 0x1d, 0x3e, 0x12, 0xdc, 0x84, 0xbf, 0xcd, 0x41, 0xa5, 0x3d,
  0xe7, 0xf3, 0xa5, 0x3b, 0x6d, 0xc0, 0x69, 0xbe, 0x03, 0x8d, 0x7e, 0xbf,
  0xae, 0x5c, 0x11, 0xbf, 0xf4, 0xe5, 0x12, 0xbe, 0x35, 0x33, 0xbc, 0xbe,
  0x8d, 0xd2, 0x5f, 0xbf, 0x5d, 0x37, 0x84, 0x3d, 0xbb, 0x86, 0xcf, 0xbe,
  0xa5, 0xbd, 0xb7, 0x3c, 0xba, 0x4b, 0x5b, 0x3c, 0xf9, 0xe5, 0x13, 0x3c,
  0xd6, 0x43, 0xe3, 0x3b, 0xae, 0x8b, 0xbb, 0x3c, 0x81, 0xd6, 0x47, 0xbf,
  0x71, 0x7b, 0x12, 0x3d, 0x6e, 0x5b, 0x61, 0x3c, 0x95, 0x37, 0x08, 0xbd,
  0x3f, 0x54, 0x49, 0xbf, 0x5f, 0x9c, 0x32, 0xbf, 0x3c, 0x5f, 0x44, 0xbe,
  0x11, 0xf8, 0x29, 0xbd, 0x9b, 0x29, 0xe9, 0xbe, 0x59, 0xca, 0x86, 0xbe,
  0x19, 0x35, 0xa3, 0xbe, 0xc5, 0x1f, 0x06, 0xbe, 0xe6, 0x0d, 0x49, 0x3c,
  0x5c, 0xf0, 0x61, 0xbe, 0xb7, 0x4e, 0x20, 0x3e, 0xf6, 0x12, 0xc4, 0x3d,
  0xea, 0x9f, 0x07, 0xbf, 0x23, 0x90, 0x35, 0x3d, 0x7a, 0xa7, 0x8e, 0xbd,
  0x27, 0x4b, 0x6a, 0xbe, 0xea, 0xf6, 0xeb, 0xbe, 0x6e, 0xdc, 0x22, 0xbf,
  0x66, 0x25, 0xc4, 0xbe, 0x0b, 0xfa, 0x5d, 0xbe, 0xf9, 0x6e, 0x00, 0xbf,
  0x6a, 0x28, 0x87, 0xbe, 0xbb, 0x1a, 0x4f, 0xbe, 0x81, 0xcb, 0x01, 0xbd,
  0x12, 0x54, 0x5d, 0xbd, 0x42, 0x45, 0xab, 0x3d, 0xb1, 0xe1, 0x19, 0x3e,
  0xac, 0x7e, 0x2e, 0x3d, 0x0a, 0x23, 0xad, 0xbe, 0x26, 0xe1, 0x43, 0x3d,
  0x38, 0xbb, 0x0e, 0xbe, 0xb1, 0xe7, 0x0e, 0xbf, 0x5b, 0xc7, 0x9c, 0xbe,
  0x89, 0x65, 0x23, 0x3e, 0x87, 0x4f, 0x6a, 0xbd, 0xd8, 0x8f, 0xc9, 0xbe,
  0xa3, 0x4b, 0x6e, 0xbe, 0xbd, 0xe1, 0x50, 0x3c, 0xd5, 0xad, 0x8e, 0xbd,
  0xc7, 0x42, 0xb1, 0xb9, 0x12, 0x32, 0x35, 0x3c, 0x1b, 0xeb, 0x22, 0xbe,
  0xaf, 0x17, 0x3f, 0xbe, 0x17, 0x58, 0x4c, 0x3d, 0x35, 0xff, 0x98, 0x3d,
  0x7d, 0x9e, 0xc0, 0x3d, 0x09, 0x95, 0xbf, 0xbd, 0xd3, 0x6b, 0x33, 0x3d,
  0xfa, 0xd7, 0x3c, 0xbd, 0x81, 0xa7, 0x48, 0xbe, 0xe9, 0xac, 0xbb, 0x3c,
  0x39, 0x46, 0xe8, 0x3a, 0xd2, 0x1b, 0x71, 0xbe, 0x1d, 0x6f, 0x01, 0xbe,
  0xa5, 0x1f, 0x5d, 0x3b, 0x5a, 0xbd, 0x42, 0xbd, 0xd5, 0x3b, 0xdc, 0xbd,
  0x3a, 0xd0, 0x63, 0xbc, 0x82, 0x16, 0xd8, 0x3d, 0x81, 0xee, 0x25, 0x3e,
  0x3a, 0x12, 0x06, 0xbc, 0x96, 0xe8, 0x52, 0xbd, 0x0e, 0xe8, 0xb8, 0x3d,
  0xae, 0x45, 0x01, 0x39, 0x8c, 0xaa, 0x7b, 0xbe, 0x07, 0xf4, 0x24, 0xbe,
  0x71, 0x86, 0x0b, 0x3d, 0xa2, 0x09, 0x80, 0xbc, 0x3b, 0x1d, 0xd1, 0xbd,
  0xad, 0x04, 0xf1, 0xbd, 0xa8, 0x1d, 0x63, 0x3d, 0x0d, 0x5e, 0x28, 0xbe,
  0x99, 0x8e, 0x68, 0xbe, 0xa8, 0x21, 0x02, 0xbd, 0x90, 0xec, 0x27, 0x3d,
  0xab, 0x14, 0x1e, 0xbe, 0x69, 0x0e, 0xce, 0xbd, 0xec, 0xe4, 0x6d, 0xbe,
  0x27, 0xfb, 0x8b, 0xbd, 0xa8, 0x36, 0x2b, 0xbd, 0x55, 0xa9, 0x12, 0xbd,
  0x92, 0x17, 0x3a, 0xbe, 0x59, 0x2b, 0x33, 0xbe, 0xa9, 0x54, 0x19, 0xbe,
  0x23, 0xd7, 0x87, 0x3d, 0xb7, 0x9b, 0xe7, 0xbd, 0xaa, 0x37, 0xa8, 0x3d,
  0xb0, 0x9e, 0x83, 0xbc, 0x64, 0xaa, 0x8e, 0x3c, 0x1b, 0xff, 0x0c, 0xbe,
  0x52, 0x86, 0xf9, 0x3d, 0x19, 0xf9, 0x85, 0xbd, 0x46, 0x2a, 0x3a, 0xbe,
  0x00, 0xce, 0x0d, 0xbe, 0x7f, 0x73, 0x2f, 0x3d, 0x26, 0xbb, 0x9b, 0x3c,
  0xa2, 0xa5, 0xe3, 0xbd, 0xa8, 0x0d, 0xd8, 0xbc, 0xb3, 0x8a, 0x68, 0xbc,
  0x4d, 0xff, 0xbd, 0x3a, 0xe9, 0x81, 0x2b, 0x3d, 0x6c, 0x0b, 0x47, 0xbd,
  0xb7, 0x4c, 0x8c, 0xbb, 0x42, 0xf9, 0x8b, 0xbd, 0xed, 0xfb, 0x18, 0xbe,
  0x89, 0x23, 0x13, 0xbd, 0x16, 0xd8, 0xd2, 0xbd, 0xd2, 0xd1, 0xe1, 0x3d,
  0xa1, 0xf6, 0x72, 0xbe, 0x38, 0x83, 0x40, 0xbe, 0x21, 0xb0, 0x9e, 0xbd,
  0x93, 0x9c, 0xb4, 0xbc, 0x92, 0x71, 0x47, 0x3d, 0x0c, 0x07, 0xfc, 0xbd,
  0x71, 0x4c, 0x42, 0x3d, 0xd1, 0x3f, 0x37, 0xbc, 0x38, 0x8d, 0x45, 0xbd,
  0x45, 0x7e, 0xc9, 0x3d, 0xb1, 0x7b, 0x86, 0xbd, 0xaa, 0xb2, 0x3c, 0x3c,
  0x95, 0x93, 0x31, 0xbe, 0x40, 0xc6, 0x35, 0xbe, 0x86, 0x82, 0xa7, 0xbd,
  0xa7, 0xa2, 0x10, 0x3e, 0xc0, 0xa0, 0x0e, 0xbe, 0x02, 0x62, 0x26, 0xbc,
  0xe1, 0x50, 0x2a, 0xbe, 0x22, 0x3a, 0xcd, 0x3d, 0x11, 0x1f, 0x8a, 0xbd,
  0x94, 0xa2, 0x58, 0xbe, 0x4e, 0x56, 0x09, 0x3d, 0xa9, 0x09, 0xd0, 0xbc,
  0x4c, 0x15, 0x3e, 0xbe, 0x09, 0xaa, 0x80, 0x3d, 0xba, 0x04, 0x5d, 0x3c,
  0xda, 0x05, 0xc6, 0xbd, 0x8d, 0xb1, 0x6f, 0xbe, 0xad, 0xd9, 0xdb, 0x3d,
  0xbc, 0xce, 0xd9, 0xbd, 0x61, 0x41, 0x9f, 0xbd, 0xe8, 0xa8, 0x17, 0x3d,
  0x22, 0x7c, 0x1b, 0xbe, 0x59, 0x5e, 0x15, 0x3c, 0xe3, 0xf0, 0x64, 0x3c,
  0xdd, 0xdd, 0x34, 0x3d, 0x28, 0x22, 0x53, 0x3d, 0x65, 0xce, 0x01, 0x3c,
  0x17, 0x32, 0x16, 0x3d, 0xfc, 0xd0, 0xb2, 0xbc, 0x2e, 0x12, 0xd1, 0x3c,
  0x2e, 0x7c, 0x08, 0x3d, 0x5c, 0x7e, 0xbd, 0xbd, 0xe4, 0x82, 0x49, 0xbe,
  0xf3, 0xca, 0xbf, 0x3c, 0x69, 0x58, 0x15, 0xbe, 0x78, 0x59, 0x92, 0xbd,
  0x3b, 0x69, 0xa7, 0xbd, 0xf0, 0x26, 0x0f, 0x3d, 0xa9, 0x89, 0x76, 0x3c,
  0xc0, 0x97, 0x73, 0x3d, 0xd0, 0x9d, 0x99, 0xbd, 0x0b, 0x21, 0xc8, 0xbd,
  0x25, 0xbe, 0x0b, 0xbe, 0x42, 0x9c, 0x84, 0x3d, 0x50, 0x87, 0xfd, 0x3b,
  0x1d, 0xcc, 0xd5, 0xbd, 0xc6, 0x19, 0x1b, 0xbe, 0xa3, 0x04, 0xf7, 0xbc,
  0xb3, 0xba, 0x34, 0xbe, 0x81, 0x1e, 0xe9, 0xbd, 0x2e, 0x04, 0xdf, 0xbd,
  0x6d, 0xab, 0x12, 0xbd, 0x0f, 0xd4, 0x8e, 0x3c, 0x36, 0xc1, 0x5f, 0xbe,
  0xaf, 0x91, 0x33, 0xbe, 0x01, 0x1a, 0x9b, 0xbd, 0xe0, 0xe1, 0x25, 0x3d,
  0xc5, 0xef, 0x48, 0x3d, 0x3e, 0xf2, 0x17, 0xbe, 0x26, 0xdf, 0x0d, 0xbe,
  0x9c, 0x61, 0x32, 0xbe, 0x2b, 0xd8, 0xf7, 0x3d, 0x51, 0x21, 0x19, 0xbe,
  0x7d, 0x26, 0x34, 0xbe, 0xbd, 0xf2, 0x6c, 0xbe, 0x5f, 0x4d, 0xa2, 0xbd,
  0x6c, 0x59, 0xef, 0xba, 0xde, 0xf2, 0x8e, 0x3d, 0x11, 0x4d, 0xff, 0xbd,
  0xa8, 0xba, 0x31, 0xbe, 0x71, 0xa7, 0xcb, 0x3d, 0x31, 0x3d, 0x2b, 0xbe,
  0x6d, 0x61, 0x56, 0xbe, 0xc9, 0x60, 0x2b, 0xbe, 0xca, 0x42, 0xb5, 0xbd,
  0xa3, 0x3f, 0x1e, 0xbe, 0x3b, 0x27, 0x1f, 0xbd, 0x71, 0x5f, 0xab, 0x3c,
  0x65, 0x60, 0xb6, 0x3c, 0x82, 0x28, 0x71, 0x3c, 0xf1, 0xbe, 0xb9, 0x3c,
  0x8e, 0x7c, 0x1b, 0xbe, 0x26, 0x84, 0xdf, 0x3d, 0x2b, 0xee, 0xb5, 0x3d,
  0xef, 0x08, 0x3b, 0xbe, 0x94, 0x8e, 0x4d, 0xbd, 0x0e, 0xe7, 0xf0, 0xbd,
  0xc6, 0xc7, 0x1b, 0x3b, 0x17, 0xea, 0xa9, 0xbc, 0x1b, 0x3f, 0x30, 0x3c,
  0x09, 0x37, 0x10, 0x3d, 0x5a, 0x56, 0xad, 0xbc, 0x5d, 0xa4, 0x9c, 0x3a,
  0xbd, 0xed, 0x27, 0xbd, 0x37, 0xaf, 0x10, 0xbe, 0xcc, 0xf0, 0x84, 0xbc,
  0x10, 0x0b, 0x2e, 0xbe, 0x37, 0xb5, 0x0c, 0xbe, 0x58, 0xb0, 0xc8, 0x3d,
  0xa6, 0x6e, 0xa7, 0xbb, 0x11, 0xb2, 0x02, 0xbe, 0x06, 0xf9, 0x3e, 0xbe,
  0xfb, 0xe8, 0x9c, 0x3c, 0x2a, 0x09, 0xe6, 0xbd, 0xef, 0x58, 0xe8, 0x3c,
  0xd5, 0x62, 0x5d, 0xbe, 0xef, 0x27, 0x86, 0xbd, 0x95, 0x37, 0xee, 0xbc,
  0xc7, 0xd8, 0x04, 0xbd, 0xbb, 0x9f, 0x0c, 0xbd, 0x85, 0x36, 0xe6, 0xbd,
  0x2d, 0xd4, 0x9b, 0x3c, 0x2e, 0x21, 0x70, 0xbe, 0x63, 0xb3, 0x82, 0xbd,
  0xa2, 0x6b, 0x86, 0x3d, 0xfc, 0x32, 0xc6, 0x3d, 0x0e, 0xb9, 0x23, 0xbe,
  0xb6, 0x9d, 0x0d, 0xbe, 0x43, 0x9e, 0x12, 0x3d, 0xbd, 0x52, 0x03, 0xba,
  0x1b, 0xf1, 0x1e, 0xbd, 0x06, 0x25, 0xee, 0xbb, 0x52, 0x03, 0x86, 0xbd,
  0x14, 0xc0, 0x42, 0xbe, 0x04, 0x27, 0xee, 0x3c, 0xb0, 0x7b, 0x70, 0xbd,
  0x95, 0x73, 0xb1, 0xbd, 0x08, 0xed, 0xbe, 0x3d, 0xa7, 0xd0, 0x47, 0xbe,
  0x12, 0xd8, 0x04, 0x3d, 0xd7, 0xa1, 0xb1, 0x3d, 0xd0, 0x03, 0x14, 0x3d,
  0x9e, 0x22, 0xad, 0xbd, 0x7a, 0x7f, 0x1a, 0xba, 0x21, 0x47, 0xd1, 0x3d,
  0x2d, 0x67, 0x0b, 0xbe, 0xac, 0x5a, 0x28, 0xbe, 0x70, 0x24, 0xca, 0xbe,
  0xfa, 0x83, 0x8c, 0xbd, 0x41, 0xaf, 0x63, 0x3d, 0x28, 0xa4, 0x08, 0xbe,
  0x48, 0xbf, 0xa2, 0x3d, 0x56, 0xc7, 0xa1, 0xbd, 0x1e, 0x17, 0x16, 0x3d,
  0x42, 0x54, 0x71, 0x3c, 0x94, 0x2d, 0xea, 0xbc, 0xc7, 0x49, 0x87, 0x3c,
  0x35, 0x30, 0x49, 0x3c, 0xab, 0x15, 0x09, 0xbe, 0x83, 0x42, 0xfe, 0xbd,
  0xa7, 0xd0, 0x8d, 0xbe, 0xeb, 0xfb, 0x0d, 0x3d, 0x0e, 0x86, 0x0c, 0xbe,
  0x58, 0x89, 0xa6, 0x3e, 0xc8, 0xd8, 0xe5, 0x3d, 0x82, 0xe1, 0xcf, 0x3d,
  0x3f, 0x6d, 0x53, 0xbd, 0x6e, 0x4b, 0xad, 0x3e, 0x27, 0xc1, 0x76, 0xbf,
  0x6b, 0x7f, 0xf0, 0xbc, 0xcb, 0x67, 0x4b, 0x3e, 0xda, 0x96, 0xd9, 0x3e,
  0x09, 0xfd, 0xa6, 0xbe, 0xd3, 0x33, 0x93, 0x3e, 0xbc, 0x98, 0x82, 0xbd,
  0x13, 0x46, 0x88, 0x3e, 0xdf, 0xe9, 0xd5, 0xbc, 0xc5, 0x0d, 0xd2, 0x3d,
  0x57, 0x95, 0x80, 0xbe, 0xb5, 0xa6, 0xf0, 0xbc, 0x46, 0x30, 0x21, 0x3e,
  0x0e, 0x6a, 0x2e, 0x3d, 0x33, 0xd7, 0xd9, 0xbc, 0x82, 0x1c, 0x86, 0x3d,
  0x52, 0x59, 0x52, 0xbe, 0xf2, 0x1e, 0xb6, 0x3d, 0xbd, 0x07, 0xce, 0x3e,
  0x40, 0xc0, 0x40, 0xbe, 0xfc, 0xf1, 0xb9, 0x3d, 0x6c, 0x0f, 0x7e, 0x3e,
  0x7c, 0x6f, 0xc0, 0x3d, 0xb0, 0xa0, 0xb2, 0xbd, 0x07, 0xff, 0x90, 0xbd,
  0x17, 0x2f, 0xaf, 0xbd, 0xdd, 0x7f, 0xed, 0xbd, 0x95, 0xfc, 0x38, 0x3e,
  0x96, 0x69, 0x17, 0x3d, 0x76, 0x48, 0x0d, 0xbe, 0x45, 0xdf, 0x12, 0x3d,
  0x11, 0x0c, 0x95, 0x3e, 0xa9, 0x90, 0x9e, 0xbe, 0x56, 0x50, 0x7e, 0x3c,
  0xcc, 0xcb, 0x0f, 0xbe, 0x1c, 0xb5, 0x8c, 0xbe, 0x04, 0xe6, 0x34, 0x3e,
  0xe2, 0x0e, 0x06, 0x3f, 0x32, 0x87, 0x5f, 0xbd, 0x62, 0x3e, 0xa0, 0xbd,
  0x7e, 0xb3, 0xd2, 0x3d, 0xf5, 0x26, 0x26, 0xbe, 0x27, 0x52, 0x38, 0xbd,
  0x47, 0xb2, 0xdf, 0x3d, 0x20, 0xb6, 0x04, 0xbf, 0x67, 0x6d, 0x90, 0x3c,
  0x03, 0xc8, 0xb2, 0x3c, 0xda, 0x6d, 0x8e, 0x3b, 0x13, 0x00, 0x27, 0xbe,
  0xa7, 0x68, 0xd6, 0x3d, 0xaa, 0x42, 0x9a, 0xbd, 0x50, 0x43, 0xd0, 0xbe,
  0x8d, 0xa3, 0x7b, 0x3d, 0xde, 0xdd, 0x8f, 0x3e, 0xca, 0x77, 0xcd, 0xbd,
  0x5a, 0x4c, 0xb7, 0xbe, 0xa5, 0x8c, 0x1a, 0x3e, 0x82, 0x32, 0x35, 0xbe,
  0xc2, 0x4b, 0x19, 0x3e, 0x85, 0x55, 0x23, 0xbd, 0xdd, 0x9d, 0x0d, 0xbf,
  0x5a, 0x45, 0xec, 0x3d, 0xfa, 0xcf, 0x48, 0x3c, 0x17, 0x81, 0xb1, 0xbe,
  0x5b, 0x36, 0x9d, 0xbd, 0xf3, 0x7a, 0x2a, 0x3d, 0x4a, 0x58, 0x1b, 0x3e,
  0x14, 0x48, 0x5e, 0xbe, 0x1b, 0x11, 0x5d, 0x3e, 0x69, 0xdc, 0x0d, 0x3d,
  0x3a, 0x37, 0x35, 0xbe, 0x6e, 0x9a, 0x06, 0xbf, 0xc2, 0xac, 0x13, 0x3e,
  0x20, 0x3e, 0x12, 0xbe, 0x94, 0xee, 0x62, 0xbc, 0xdf, 0x95, 0x91, 0xbd,
  0x70, 0xba, 0xc1, 0xbc, 0xbb, 0x2f, 0x08, 0x3c, 0xb4, 0x06, 0xda, 0x3d,
  0x60, 0x68, 0xb4, 0xbe, 0x78, 0xee, 0xc9, 0xbd, 0x8c, 0xc6, 0xc4, 0xbc,
  0xf2, 0x94, 0xda, 0x3c, 0xec, 0xbd, 0x86, 0xbe, 0x41, 0xb8, 0x4a, 0xbe,
  0x3d, 0x5a, 0xa2, 0xbd, 0x49, 0x36, 0xf7, 0x3c, 0xad, 0x62, 0xa2, 0xbe,
  0xff, 0x39, 0x63, 0x3d, 0x3b, 0x4c, 0x07, 0xbf, 0x56, 0x46, 0x71, 0x3d,
  0x4a, 0x3b, 0x95, 0xbe, 0xc0, 0x00, 0xa2, 0xbe, 0x3c, 0x0b, 0x88, 0xbc,
  0xef, 0xf2, 0x7c, 0xbe, 0x76, 0x9a, 0xe6, 0xbe, 0x18, 0x73, 0x41, 0x3d,
  0x16, 0x41, 0x39, 0x3d, 0xac, 0x64, 0xad, 0x3d, 0x52, 0xfa, 0xe0, 0xbe,
  0xf4, 0x42, 0x9e, 0xbd, 0x9e, 0x19, 0x7f, 0xbe, 0xed, 0xe9, 0x85, 0x3d,
  0x79, 0xc2, 0x06, 0xbe, 0xc6, 0x77, 0x57, 0xbe, 0x7d, 0x35, 0xb6, 0xbe,
  0x2e, 0xb0, 0x0f, 0xbe, 0x78, 0x61, 0xc6, 0xbe, 0x81, 0x63, 0x79, 0xbe,
  0x48, 0x59, 0x37, 0xbe, 0x31, 0x26, 0x08, 0xbe, 0xd9, 0x15, 0x39, 0xbe,
  0x9a, 0x84, 0xfd, 0x3c, 0xb6, 0xbb, 0xed, 0xbd, 0x03, 0x28, 0x3b, 0xbc,
  0x84, 0x12, 0x7f, 0xbe, 0x19, 0x8f, 0x41, 0x3e, 0x56, 0xfc, 0x7a, 0xbe,
  0x95, 0x4b, 0x78, 0xbd, 0xfc, 0x2b, 0x29, 0xbe, 0xad, 0xb9, 0x77, 0xbd,
  0x05, 0x83, 0x7d, 0xbe, 0xa0, 0x39, 0x0b, 0xbc, 0x78, 0x43, 0xb3, 0xbe,
  0x8b, 0xef, 0xb7, 0xbe, 0xa3, 0x23, 0xd3, 0xbd, 0x6b, 0x98, 0x8d, 0xbe,
  0x7f, 0xe9, 0x0d, 0xbe, 0x4f, 0x17, 0x60, 0x3c, 0xf6, 0x5f, 0x86, 0xbd,
  0xf5, 0x49, 0xcd, 0x3c, 0x6d, 0x35, 0x4b, 0xbe, 0xf6, 0x55, 0x4f, 0x3e,
  0xa8, 0x3b, 0x68, 0xbe, 0xd2, 0xbd, 0x84, 0x3c, 0x4f, 0x6b, 0x83, 0xbe,
  0xe0, 0x4c, 0xf9, 0x3d, 0x25, 0xec, 0x4b, 0x3c, 0x16, 0x06, 0x8b, 0xbd,
  0xb7, 0xe8, 0x8a, 0xbe, 0x35, 0x21, 0x77, 0xbe, 0x5b, 0xf1, 0x2f, 0xbd,
  0x02, 0x2e, 0x02, 0xbe, 0x91, 0x44, 0x90, 0xbe, 0x28, 0xed, 0x61, 0x3d,
  0xda, 0x24, 0xd3, 0xbd, 0x2a, 0x02, 0x1c, 0xbd, 0x0a, 0x44, 0x29, 0xbe,
  0x34, 0x8e, 0xe8, 0xbd, 0xca, 0xc8, 0x23, 0xbe, 0x45, 0x8c, 0xa3, 0xbc,
  0x6d, 0x75, 0x4a, 0xbe, 0xdc, 0xef, 0x23, 0xbe, 0x03, 0x31, 0x78, 0xbd,
  0x57, 0xa3, 0x1f, 0xbd, 0x6c, 0x28, 0x87, 0xbe, 0xc1, 0xd4, 0x84, 0xbe,
  0x8f, 0x23, 0x17, 0xbe, 0x36, 0x16, 0x8b, 0xbe, 0x52, 0x36, 0x91, 0xbe,
  0x98, 0xbd, 0xc8, 0x3d, 0xcb, 0x72, 0xa0, 0x3c, 0xd6, 0x1b, 0x11, 0xbe,
  0x3c, 0x90, 0x18, 0xbe, 0x68, 0x55, 0x34, 0xbe, 0x01, 0xb3, 0x54, 0xbe,
  0xa9, 0x06, 0xb6, 0xbc, 0x60, 0xed, 0x76, 0xbe, 0xbc, 0xc9, 0x0d, 0x3e,
  0x9c, 0xfd, 0x14, 0xbd, 0xce, 0xb1, 0x3f, 0xbe, 0x93, 0xb1, 0x72, 0xbe,
  0xa4, 0x0f, 0x56, 0xbd, 0x13, 0x6b, 0xd4, 0x3d, 0x65, 0xc8, 0x54, 0xbe,
  0xed, 0xbd, 0x01, 0xbe, 0x4e, 0x0e, 0x7b, 0x3d, 0x66, 0xff, 0x08, 0xbd,
  0xb6, 0xac, 0xe9, 0xbd, 0x70, 0xd2, 0x2a, 0xbe, 0xf9, 0x89, 0x48, 0xbe,
  0xba, 0xe4, 0x0d, 0x3e, 0x46, 0x32, 0x87, 0xbd, 0xf1, 0x7e, 0x86, 0xbe,
  0xc4, 0x0c, 0xd2, 0xbd, 0xc7, 0x28, 0xe1, 0xbd, 0xa0, 0x9b, 0xf9, 0xbd,
  0x01, 0xda, 0x86, 0xbe, 0xec, 0x18, 0x93, 0xbe, 0xb2, 0xa8, 0xf5, 0xbd,
  0x36, 0xfd, 0x96, 0xbe, 0x2a, 0x42, 0x48, 0xbd, 0x0f, 0xe5, 0x1e, 0x3d,
  0x8f, 0x31, 0xa7, 0x3d, 0xb8, 0x7e, 0x86, 0xbd, 0xc7, 0xe8, 0xe7, 0xbe,
  0x98, 0xdc, 0xd5, 0xbb, 0x90, 0x64, 0x26, 0x3d, 0x94, 0x66, 0x39, 0x3e,
  0xd1, 0x55, 0x7c, 0xbe, 0xb7, 0xa5, 0x3d, 0x3c, 0xb3, 0xde, 0xe7, 0xbc,
  0xa2, 0x9b, 0x90, 0x3d, 0xe6, 0xc4, 0x60, 0x3d, 0x87, 0x30, 0xd6, 0xbd,
  0x1b, 0xaf, 0xbd, 0xbd, 0x37, 0x84, 0xbb, 0x3c, 0x20, 0x53, 0x06, 0xbf,
  0x7c, 0x13, 0x9f, 0x3e, 0x42, 0xec, 0x3a, 0x3d, 0x96, 0xae, 0x82, 0x3d,
  0x07, 0x77, 0x8b, 0xbb, 0x1c, 0x46, 0xc2, 0xbe, 0xaf, 0x1d, 0x1d, 0xbe,
  0x6b, 0x5e, 0x91, 0x3e, 0x07, 0xfa, 0xac, 0xbe, 0xe1, 0xc4, 0xbb, 0xbe,
  0xdb, 0xf9, 0x9f, 0x3c, 0x91, 0xca, 0x0a, 0x3e, 0xe0, 0x01, 0x34, 0xbe,
  0xaf, 0xac, 0x00, 0xbc, 0xe2, 0x3a, 0xa4, 0xbc, 0xab, 0x5e, 0xf8, 0x3b,
  0xb5, 0x7e, 0x41, 0x3e, 0xa1, 0x3c, 0x9e, 0xbb, 0xfd, 0x0d, 0x84, 0xbe,
  0x4d, 0x27, 0x03, 0xbc, 0xd2, 0xbc, 0x4f, 0xbe, 0x07, 0xa2, 0x85, 0x3c,
  0x08, 0xc1, 0x33, 0x3e, 0x74, 0x36, 0xde, 0xbd, 0x19, 0xdd, 0x97, 0xbd,
  0xe5, 0x3c, 0x55, 0x3e, 0x18, 0x26, 0xf6, 0xbc, 0xf0, 0x5a, 0x18, 0x3e,
  0xef, 0xe0, 0x83, 0xbe, 0x75, 0x21, 0xf9, 0x3c, 0x23, 0x36, 0xec, 0x3d,
  0xff, 0x1b, 0x10, 0x3e, 0xf2, 0xef, 0x34, 0x3e, 0x43, 0xdc, 0x67, 0xbd,
  0xa6, 0x16, 0xfc, 0xbd, 0x95, 0x39, 0x56, 0xbd, 0x2f, 0x35, 0x26, 0x3e,
  0x55, 0xf4, 0x01, 0x3e, 0xbf, 0x53, 0x7a, 0xbd, 0x9a, 0x7d, 0xb1, 0xbd,
  0xbd, 0xe9, 0xec, 0xbc, 0x8c, 0xc6, 0x07, 0x3e, 0x34, 0x58, 0xca, 0xbd,
  0x2d, 0x88, 0x3c, 0x3e, 0xfa, 0xbb, 0x16, 0xbe, 0xef, 0xfe, 0xb4, 0x3d,
  0x4d, 0x81, 0x2b, 0x3e, 0xaa, 0xe1, 0x0e, 0x3e, 0xc8, 0x5c, 0x0d, 0x3e,
  0x57, 0x5f, 0x6c, 0xbe, 0xae, 0xc9, 0xb4, 0xbd, 0x66, 0xfe, 0xbe, 0x3c,
  0xd1, 0x71, 0xa0, 0x3d, 0x63, 0x6e, 0x87, 0xbd, 0x88, 0x7a, 0xdb, 0xbd,
  0x85, 0x82, 0xdc, 0xbb, 0x71, 0xc2, 0xed, 0xbd, 0x08, 0x06, 0x8c, 0x3d,
  0xb3, 0x43, 0x32, 0xbe, 0xdf, 0x0a, 0xea, 0x3d, 0xad, 0x93, 0x19, 0xbe,
  0xbd, 0xa0, 0xca, 0x3d, 0xe2, 0xc0, 0xae, 0x3d, 0x7d, 0x4e, 0x91, 0x3d,
  0xe4, 0x4d, 0x80, 0x3e, 0xdf, 0x7a, 0x26, 0xbe, 0xa4, 0xf8, 0x8f, 0x3c,
  0x84, 0xe5, 0x2a, 0xbd, 0xc1, 0x77, 0x62, 0x3e, 0x78, 0x4e, 0xb7, 0xbe,
  0xd4, 0x0c, 0x41, 0xbc, 0x6c, 0xc0, 0xe4, 0x3c, 0xe5, 0x5b, 0xc9, 0xbd,
  0xad, 0x4c, 0x21, 0x3d, 0x43, 0x45, 0x38, 0xbe, 0x98, 0x36, 0x28, 0x3e,
  0x60, 0x4f, 0x21, 0xbe, 0x2f, 0x0b, 0x3a, 0x3d, 0xdb, 0x88, 0x8f, 0x3c,
  0x01, 0xf7, 0x27, 0x3e, 0x05, 0x77, 0xb4, 0x3d, 0xbb, 0x9b, 0x5c, 0xbe,
  0xd0, 0x22, 0xfd, 0xbc, 0x8a, 0xb6, 0x5b, 0xbd, 0xe3, 0x7f, 0xa0, 0x3e,
  0x53, 0x3d, 0x3e, 0xbe, 0xa7, 0x3a, 0x96, 0xbb, 0x8c, 0xd1, 0x71, 0xbc,
  0x38, 0x02, 0x93, 0xbd, 0x2b, 0x8c, 0x08, 0x3d, 0x09, 0x98, 0xd7, 0xbd,
  0x0c, 0xea, 0x15, 0x3e, 0x31, 0x6e, 0x7c, 0xbd, 0x80, 0xbc, 0x62, 0xbd,
  0xf4, 0xb7, 0x23, 0xbb, 0x94, 0xa0, 0x01, 0x3e, 0x52, 0xd8, 0x55, 0x3e,
  0xce, 0xde, 0x9c, 0xbd, 0x9a, 0xbf, 0x90, 0xbc, 0xe2, 0x3b, 0x88, 0xbd,
  0x8a, 0x31, 0x68, 0x3e, 0x2e, 0xf4, 0x80, 0xbb, 0xde, 0xfb, 0x10, 0x3e,
  0x37, 0x91, 0x54, 0x3d, 0x00, 0x67, 0xda, 0xbc, 0x75, 0x73, 0xee, 0x3c,
  0xf6, 0x48, 0xa7, 0xbe, 0x15, 0xb7, 0x8f, 0x3d, 0xe9, 0x0f, 0x31, 0xbd,
  0x1f, 0x8c, 0x58, 0xbb, 0x1f, 0x36, 0xaa, 0x3d, 0x9a, 0xac, 0xc5, 0x3d,
  0x22, 0x45, 0x69, 0x3e, 0xff, 0xad, 0xf1, 0xbd, 0xa9, 0x08, 0x02, 0xbd,
  0x00, 0xf6, 0xa3, 0xbd, 0xd7, 0x7c, 0x81, 0x3e, 0x87, 0xb3, 0xf6, 0x3c,
  0x2f, 0x98, 0x98, 0xbd, 0xe6, 0x27, 0xd4, 0x3d, 0xb6, 0xac, 0xc9, 0x3c,
  0x21, 0x5c, 0xe4, 0x3d, 0x3a, 0x69, 0x92, 0xbd, 0x8a, 0xd6, 0xb6, 0x3d,
  0x1e, 0x2b, 0x4c, 0xbe, 0x19, 0x4f, 0x6d, 0xbd, 0xb9, 0xad, 0x58, 0x3b,
  0x15, 0x93, 0xd6, 0x3d, 0xc0, 0x33, 0x3e, 0x3e, 0x04, 0x5a, 0x20, 0xbd,
  0x7b, 0x2f, 0xd0, 0xbb, 0x3f, 0xee, 0xbd, 0xbd, 0xba, 0x84, 0x54, 0x3e,
  0x74, 0x2a, 0xdc, 0xbd, 0x82, 0x8b, 0x53, 0xbe, 0x21, 0xed, 0x0b, 0x3d,
  0xd2, 0xeb, 0x75, 0x3d, 0x8a, 0x32, 0x9c, 0xbe, 0x3c, 0x5e, 0x99, 0xbe,
  0x2c, 0xae, 0x1e, 0xbd, 0x04, 0x09, 0x48, 0xbe, 0x92, 0xbb, 0xc6, 0xbd,
  0xd9, 0x0b, 0xf0, 0x3c, 0x42, 0xc7, 0xa4, 0x3d, 0xfe, 0xf1, 0xaa, 0x3d,
  0xa0, 0x8c, 0x25, 0x3d, 0x65, 0xb2, 0xd4, 0xbd, 0xd8, 0xb1, 0x26, 0xbd,
  0xb9, 0x76, 0x3e, 0x3e, 0x49, 0xd2, 0xc0, 0xbd, 0x59, 0x9c, 0x00, 0x3d,
  0x76, 0x83, 0x0f, 0x3d, 0x70, 0xd4, 0x9b, 0x3c, 0xfb, 0x0b, 0x79, 0xbd,
  0x64, 0x0e, 0x55, 0xbe, 0x2a, 0xfd, 0x13, 0x3e, 0x54, 0x88, 0xc4, 0xbc,
  0xa1, 0xca, 0xca, 0x3c, 0xf1, 0x56, 0xe9, 0x3c, 0xc6, 0xe9, 0x0c, 0x3d,
  0xbe, 0xbf, 0x12, 0x3e, 0x50, 0x22, 0x83, 0xbb, 0xc5, 0x5c, 0x9e, 0xbb,
  0x7f, 0xbc, 0xaf, 0xbc, 0xfe, 0xee, 0xcc, 0x3e, 0x52, 0x5f, 0x7c, 0x3d,
  0x79, 0xdc, 0xd8, 0xbc, 0xbc, 0x94, 0x46, 0x3e, 0x12, 0xfd, 0xb3, 0x3c,
  0x2a, 0x45, 0x54, 0x3e, 0xc5, 0xcd, 0x50, 0xbe, 0x87, 0x72, 0x1b, 0x3e,
  0x28, 0xaa, 0x2b, 0xbd, 0x38, 0x47, 0x9c, 0xbd, 0x30, 0xbe, 0x29, 0x3d,
  0xcf, 0x2b, 0xda, 0x3d, 0xe7, 0x1b, 0x08, 0xbe, 0x17, 0x8b, 0x5d, 0x3e,
  0x67, 0xe2, 0x85, 0xbd, 0x1e, 0x7f, 0xa9, 0x3a, 0x26, 0x0b, 0x1e, 0x3e,
  0xd6, 0xe8, 0x84, 0x3d, 0x0b, 0x08, 0x82, 0xbc, 0x57, 0x6b, 0x08, 0xbe,
  0xd7, 0x6c, 0x85, 0xbc, 0xc9, 0x86, 0x90, 0x3d, 0x52, 0x65, 0xb6, 0xbe,
  0xe6, 0xa0, 0x38, 0xbe, 0x68, 0x90, 0x05, 0xbf, 0xba, 0xa1, 0x96, 0xbe,
  0x49, 0xe1, 0x68, 0xbe, 0xbe, 0x67, 0x14, 0xbd, 0xab, 0xf7, 0x06, 0xbe,
  0x80, 0x8a, 0x99, 0x3d, 0x5f, 0x58, 0x81, 0xbd, 0x55, 0x11, 0x1c, 0xbc,
  0xf3, 0x4e, 0xe8, 0x3e, 0x78, 0xa4, 0x88, 0x3d, 0x52, 0xfa, 0xd0, 0xbd,
  0x54, 0x22, 0xc1, 0xbe, 0x8f, 0x6b, 0x21, 0x3d, 0x48, 0x0d, 0xb8, 0x3d,
  0x79, 0x98, 0xab, 0xbe, 0xef, 0x84, 0x3d, 0xbe, 0xa9, 0xa1, 0xcf, 0xbe,
  0x06, 0x8f, 0x34, 0xbe, 0x0e, 0xf5, 0xc6, 0xbe, 0x6e, 0xd8, 0x0c, 0xbf,
  0xfe, 0x87, 0x13, 0xbe, 0x6e, 0x6c, 0x68, 0x3e, 0x0c, 0x89, 0x2a, 0xbe,
  0x76, 0x8e, 0x92, 0xbc, 0x9b, 0xb2, 0xa8, 0xbd, 0x3b, 0xa1, 0x04, 0x3d,
  0x4a, 0xc7, 0x0a, 0x3c, 0xfd, 0x9f, 0x97, 0xbe, 0x32, 0xef, 0xc3, 0x3d,
  0xdc, 0x15, 0xab, 0x3e, 0x64, 0xde, 0xb8, 0xbe, 0xa1, 0xf4, 0x24, 0xbe,
  0x12, 0x4f, 0x00, 0xbe, 0x7f, 0x01, 0x35, 0xbb, 0x0d, 0x3a, 0x52, 0xbe,
  0xc5, 0x26, 0x74, 0xbe, 0xbe, 0xa3, 0x96, 0xbc, 0x27, 0xcd, 0x24, 0xbd,
  0x63, 0xe6, 0x23, 0xbe, 0x36, 0x18, 0xe4, 0x3c, 0x89, 0x52, 0x48, 0xbe,
  0x7e, 0xf4, 0xb5, 0x3d, 0x1e, 0x8a, 0x1e, 0xbc, 0x86, 0x52, 0x71, 0xbe,
  0xe6, 0x8e, 0xc7, 0x3d, 0x30, 0x36, 0xfb, 0x3d, 0x61, 0xa7, 0x90, 0x3e,
  0x61, 0xc5, 0xb8, 0xbc, 0x99, 0x4b, 0xdb, 0x3c, 0xf0, 0xf1, 0x20, 0xbe,
  0x5a, 0x3a, 0x37, 0xbe, 0x01, 0x0b, 0x80, 0x3e, 0xe4, 0x12, 0xd4, 0xbe,
  0xa8, 0xca, 0xa6, 0x3e, 0xda, 0x8b, 0xe1, 0x3d, 0x6d, 0x26, 0x8b, 0xbd,
  0x2f, 0x98, 0xd6, 0xbc, 0x85, 0x8f, 0x23, 0xbe, 0xd2, 0x2b, 0x1d, 0x3b,
  0x38, 0xf3, 0xac, 0xbd, 0xa4, 0x71, 0xac, 0x3d, 0x44, 0x40, 0x01, 0xbf,
  0xf6, 0xc8, 0x13, 0xbf, 0xde, 0xab, 0x77, 0x3e, 0x2b, 0xa5, 0xc3, 0xbe,
  0xbb, 0x03, 0x3f, 0xbe, 0xcb, 0x1f, 0xd0, 0xbe, 0xa2, 0x97, 0xbb, 0xbd,
  0xd9, 0x78, 0x8f, 0xbe, 0x72, 0x06, 0x5c, 0xbc, 0x86, 0x50, 0xf1, 0xbe,
  0x20, 0x4f, 0x6c, 0x3c, 0x10, 0xd0, 0x1c, 0xbc, 0x12, 0x43, 0x96, 0xbe,
  0x0b, 0x09, 0x38, 0xbe, 0xde, 0xb7, 0xb1, 0x3d, 0x94, 0x0f, 0x72, 0x3d,
  0x61, 0x38, 0x1c, 0xbf, 0x7f, 0x26, 0x2d, 0xbf, 0x2b, 0x16, 0x46, 0x3e,
  0xcd, 0x1b, 0x83, 0xbe, 0x46, 0xa5, 0xb6, 0xbd, 0x4f, 0x68, 0xd4, 0xbe,
  0x98, 0x83, 0x90, 0xbe, 0x31, 0xca, 0xc1, 0xbe, 0x6e, 0xb5, 0x8f, 0xbe,
  0xb9, 0x0d, 0xc6, 0xbe, 0x75, 0x51, 0x5b, 0x3d, 0x87, 0xaa, 0x32, 0xbe,
  0x54, 0x69, 0x1c, 0xbe, 0xb3, 0x7d, 0x00, 0x3d, 0xc0, 0xa0, 0xdc, 0xbb,
  0x13, 0x7f, 0xf1, 0x3d, 0xf9, 0x5c, 0x1c, 0xbf, 0x31, 0xe7, 0x07, 0xbf,
  0xc5, 0x02, 0x41, 0x3e, 0xb3, 0xae, 0xb6, 0xbe, 0x69, 0x90, 0x41, 0xbd,
  0xff, 0xfe, 0xf5, 0xbe, 0xd9, 0x74, 0x99, 0xbe, 0xee, 0xa7, 0xb1, 0xbe,
  0x54, 0xc2, 0xa7, 0xbd, 0xb8, 0xc4, 0x47, 0xbe, 0x85, 0xea, 0x68, 0x3d,
  0x38, 0x86, 0x29, 0x3d, 0x4a, 0x8c, 0x8e, 0xbd, 0xa4, 0x4f, 0x32, 0xbe,
  0x0b, 0x7b, 0xe3, 0x3c, 0x8a, 0x15, 0x83, 0x3d, 0xb3, 0x19, 0x7f, 0xbe,
  0x94, 0x41, 0x2a, 0xbf, 0xa7, 0x6f, 0x19, 0x3e, 0x37, 0x00, 0xd8, 0xbe,
  0x92, 0x6e, 0x31, 0xbe, 0x57, 0xcb, 0x82, 0xbe, 0x21, 0xd6, 0x02, 0xbf,
  0x34, 0xf3, 0x40, 0xbe, 0xed, 0x51, 0x0b, 0x3d, 0xde, 0xed, 0x91, 0xbe,
  0x90, 0x43, 0xb3, 0x3d, 0x12, 0x4d, 0x8a, 0xbb, 0x31, 0xd2, 0x16, 0x3d,
  0xd1, 0x36, 0x85, 0x3d, 0xe1, 0xcb, 0x21, 0xbe, 0x6d, 0x77, 0xbb, 0x3d,
  0x47, 0x4e, 0x4b, 0x3e, 0x81, 0xbb, 0x2c, 0xbe, 0x10, 0xbb, 0xf7, 0xbd,
  0xb5, 0xfa, 0xc6, 0xbe, 0x56, 0x9c, 0xbb, 0xbd, 0xbf, 0x2d, 0x90, 0xbd,
  0x00, 0xd3, 0xb5, 0xbe, 0x87, 0xcc, 0xe6, 0x3b, 0x0f, 0x8c, 0x0f, 0xbf,
  0x10, 0x5c, 0x16, 0xbe, 0x80, 0x41, 0xb9, 0x3d, 0xdc, 0x40, 0x52, 0x3a,
  0x1d, 0xaf, 0xd0, 0x3d, 0x81, 0xaa, 0x24, 0xbc, 0x6d, 0x98, 0xed, 0x3c,
  0x8f, 0x10, 0xf5, 0x3d, 0x7c, 0xcf, 0x3a, 0xbe, 0x6b, 0x54, 0x03, 0xbd,
  0x8a, 0xdb, 0x80, 0xbc, 0xb7, 0x3e, 0x78, 0x3e, 0x81, 0x52, 0x9f, 0xbd,
  0x8e, 0xbf, 0x45, 0xbe, 0x89, 0xdd, 0x10, 0xbd, 0x61, 0x21, 0x91, 0x3e,
  0x36, 0x0b, 0x88, 0xbe, 0xab, 0x64, 0x1f, 0xbe, 0xa7, 0xb5, 0x7a, 0x3d,
  0x9d, 0xf5, 0xe0, 0xbd, 0x90, 0xc3, 0xf4, 0xbd, 0x3f, 0x32, 0x0c, 0xbe,
  0x87, 0xd5, 0x21, 0x3e, 0xf6, 0x58, 0x57, 0x3d, 0x54, 0x82, 0xcf, 0xbd,
  0x1b, 0xf7, 0x81, 0xbc, 0x0d, 0xe1, 0x74, 0xbe, 0xfe, 0x69, 0x23, 0x3e,
  0x34, 0x22, 0xa4, 0x3d, 0x17, 0x24, 0x72, 0xbe, 0x2d, 0x66, 0xbc, 0xbd,
  0x85, 0x92, 0x90, 0x3e, 0x0b, 0x48, 0xa0, 0xbd, 0x6d, 0xa2, 0x94, 0x3c,
  0xc8, 0x6c, 0xb2, 0xbc, 0x68, 0x44, 0xea, 0x3d, 0x8d, 0xc1, 0xaf, 0x3e,
  0x10, 0x4c, 0x2a, 0x3d, 0xc8, 0x2f, 0x11, 0x3e, 0x5a, 0x2e, 0x6a, 0x3d,
  0x0d, 0xec, 0x16, 0xbd, 0x3d, 0xce, 0xee, 0x3d, 0xe0, 0x23, 0x9a, 0xbe,
  0xc0, 0xd2, 0x36, 0x3e, 0xb9, 0x23, 0x38, 0x3e, 0x34, 0xf3, 0x0c, 0xbe,
  0x30, 0xde, 0xa6, 0x3d, 0x16, 0x55, 0x1e, 0x3e, 0xf6, 0x05, 0x12, 0xbe,
  0xbd, 0xe6, 0xca, 0xbb, 0x3b, 0xa8, 0x98, 0x3d, 0x1f, 0xce, 0xa1, 0xbe,
  0x05, 0xa3, 0xa1, 0xbc, 0xd1, 0x06, 0xf4, 0x3d, 0xc5, 0x70, 0x07, 0x3e,
  0xd1, 0xca, 0x11, 0xba, 0xb8, 0x26, 0x6b, 0x3e, 0xa2, 0x0e, 0x70, 0xbd,
  0x3d, 0xcb, 0xc2, 0x3b, 0x6b, 0x07, 0x11, 0x3e, 0xf8, 0x6a, 0x1c, 0x3e,
  0x42, 0x3e, 0xb3, 0xbd, 0x3b, 0xbe, 0x9c, 0xbc, 0x3f, 0x52, 0x7b, 0x3e,
  0x29, 0xa2, 0x8c, 0xbe, 0x26, 0xca, 0x9b, 0xbd, 0x29, 0x61, 0xd1, 0xbd,
  0x60, 0xc0, 0x2d, 0xbe, 0xef, 0xe7, 0x53, 0x3c, 0x72, 0x4b, 0x86, 0x3d,
  0x4a, 0x37, 0x5f, 0x3d, 0xa2, 0x16, 0x3b, 0xbd, 0x1d, 0xce, 0x92, 0x3e,
  0xb5, 0x1d, 0x27, 0xbe, 0x5e, 0x31, 0x48, 0xbe, 0x8e, 0x6c, 0x85, 0x3e,
  0x3f, 0xc7, 0xed, 0x3d, 0x50, 0x4c, 0xbd, 0x3d, 0x8e, 0xd4, 0x86, 0x3d,
  0x0c, 0xdf, 0x30, 0x3e, 0x9d, 0xef, 0xec, 0xbd, 0xf9, 0xe4, 0xe6, 0xbd,
  0x68, 0xa7, 0x22, 0xbc, 0xc5, 0x52, 0xa0, 0xbe, 0x40, 0x15, 0x9f, 0x3d,
  0x80, 0x36, 0x0d, 0x3e, 0x2a, 0xa7, 0x85, 0x3d, 0x60, 0x9c, 0x6c, 0xbd,
  0x9b, 0xea, 0x80, 0x3d, 0x71, 0xbc, 0x58, 0xbe, 0x07, 0x00, 0x62, 0xbe,
  0x17, 0x9a, 0x30, 0x3e, 0x4b, 0x49, 0x41, 0x3e, 0xaf, 0xbd, 0xaf, 0xbd,
  0xe9, 0xe3, 0xc8, 0x3d, 0x80, 0xfe, 0xd0, 0x3d, 0xbf, 0x80, 0x92, 0xbe,
  0xd9, 0x95, 0xf7, 0xbb, 0x1c, 0x9b, 0x8f, 0xbc, 0x21, 0xea, 0xc6, 0xbe,
  0x00, 0xd2, 0x8b, 0xbc, 0xe6, 0x4a, 0x65, 0x3e, 0x07, 0x9d, 0x75, 0x3d,
  0xf9, 0x11, 0x63, 0xbd, 0xd9, 0x04, 0x8e, 0xbd, 0x9e, 0x81, 0x59, 0xbe,
  0x27, 0x86, 0xf3, 0xbe, 0x5c, 0x30, 0x29, 0xbc, 0xef, 0x14, 0xa5, 0x3e,
  0x0d, 0xe2, 0x14, 0xbd, 0x36, 0x06, 0x5c, 0x3e, 0xc2, 0x9a, 0xe2, 0x3e,
  0xd0, 0x93, 0x1f, 0xbf, 0x52, 0x16, 0x8d, 0xbd, 0xeb, 0x3f, 0x92, 0xbe,
  0xee, 0x86, 0x96, 0xbe, 0x9b, 0x34, 0x0c, 0x3e, 0x46, 0xfb, 0xe8, 0x3e,
  0x52, 0xe5, 0xae, 0xbd, 0x46, 0x76, 0x12, 0xbe, 0x2e, 0x4c, 0xed, 0x3d,
  0xcb, 0x23, 0xac, 0xbe, 0x56, 0x52, 0xb0, 0xbe, 0xe8, 0xbb, 0x31, 0xbd,
  0x9d, 0x5c, 0xe7, 0xbe, 0x9a, 0xa3, 0x1d, 0xbe, 0x4e, 0xb1, 0x5c, 0x3d,
  0x6c, 0x88, 0x28, 0xbf, 0xe6, 0xba, 0x54, 0x3d, 0xfe, 0xea, 0xe0, 0x3d,
  0x87, 0x3e, 0x9a, 0xbe, 0xc9, 0xaa, 0xf3, 0xbd, 0x4e, 0xbd, 0xa7, 0xbd,
  0xc6, 0x5c, 0x0b, 0xbf, 0x9f, 0x0a, 0x87, 0x3d, 0xf0, 0x50, 0x47, 0xbf,
  0x97, 0xaa, 0x4b, 0xbe, 0x04, 0x55, 0x1e, 0x3e, 0x49, 0xbd, 0xad, 0x3d,
  0x7e, 0xf6, 0xbe, 0xbd, 0x18, 0x35, 0x60, 0x3e, 0x36, 0x42, 0x9d, 0xbc,
  0xeb, 0x9b, 0xad, 0xbd, 0x79, 0x8f, 0x0d, 0x3e, 0x54, 0x90, 0x03, 0xbe,
  0xe1, 0x34, 0x12, 0xbd, 0x80, 0x24, 0x05, 0x3e, 0x10, 0x36, 0x83, 0x3d,
  0xa9, 0xb7, 0x29, 0xbe, 0x8e, 0x18, 0xc8, 0x3d, 0xdf, 0xb2, 0xc1, 0xbd,
  0x08, 0x39, 0x23, 0x3e, 0x5c, 0x29, 0x56, 0x3c, 0x27, 0xc4, 0x22, 0xbe,
  0xc4, 0xe9, 0x00, 0xbe, 0xe2, 0x21, 0x7e, 0x3d, 0x94, 0x9b, 0x50, 0x3e,
  0x7c, 0x58, 0x71, 0xbe, 0x7e, 0xdf, 0xbd, 0xbd, 0x16, 0x0e, 0x47, 0x3e,
  0x71, 0xc6, 0xa3, 0xbe, 0xf4, 0xb1, 0xde, 0xbd, 0x1c, 0xc8, 0xaf, 0x3d,
  0x0e, 0xdc, 0x11, 0x3d, 0x2d, 0x5c, 0x0f, 0x3d, 0xdb, 0xee, 0xd9, 0x3e,
  0x36, 0x85, 0xab, 0x3d, 0xc1, 0x12, 0xcc, 0x3d, 0x77, 0xa6, 0x91, 0x3c,
  0xb7, 0xa0, 0xc7, 0xbd, 0x03, 0xed, 0x1b, 0xbe, 0xe8, 0x32, 0xb1, 0xbb,
  0xc7, 0x23, 0x4b, 0xbd, 0x83, 0x44, 0x26, 0xbd, 0xd4, 0x89, 0xe2, 0x3a,
  0x2a, 0x57, 0x8d, 0x3d, 0xc0, 0x0e, 0x89, 0xbe, 0x9c, 0x8c, 0x3d, 0xbd,
  0xe3, 0x4b, 0xa1, 0x3a, 0x0b, 0x68, 0xf4, 0xbd, 0x61, 0xcc, 0xe0, 0x3d,
  0x46, 0x67, 0xb1, 0x3e, 0x9c, 0x66, 0xf1, 0xbd, 0xee, 0x58, 0x08, 0x3d,
  0x45, 0xaa, 0xdf, 0x3d, 0xec, 0xec, 0x4d, 0xbd, 0xdc, 0xe4, 0xda, 0xbc,
  0xc7, 0x84, 0x03, 0x3e, 0x43, 0x10, 0xee, 0xbd, 0x50, 0x39, 0xed, 0xbd,
  0xaa, 0xc6, 0xd7, 0x3c, 0x3c, 0xff, 0x78, 0x3d, 0x60, 0x8e, 0xeb, 0xbd,
  0xff, 0xbb, 0xea, 0xbc, 0x54, 0x4b, 0x24, 0x3c, 0xd8, 0x41, 0x4f, 0xbe,
  0x17, 0xcd, 0xd2, 0x3d, 0xac, 0x8b, 0x30, 0x3e, 0x87, 0x4a, 0x0e, 0x3e,
  0x4d, 0x4f, 0x6e, 0x3d, 0xa5, 0xe1, 0x26, 0xbd, 0x43, 0x85, 0x94, 0xbe,
  0x0f, 0x05, 0x48, 0xbe, 0xd4, 0x56, 0xea, 0x3d, 0x8f, 0xdd, 0x96, 0xbd,
  0xb4, 0xb4, 0x9d, 0xbe, 0x50, 0x75, 0xcb, 0xbd, 0xab, 0x2f, 0xe6, 0x3d,
  0x90, 0x4b, 0xd4, 0xbd, 0x4e, 0xd7, 0xd6, 0xbc, 0xd2, 0x6f, 0x2f, 0xbd,
  0x2d, 0x5c, 0x71, 0xbd, 0x0a, 0x54, 0xf5, 0xbd, 0x0e, 0xb1, 0xf5, 0xbd,
  0x42, 0xd5, 0x01, 0x3a, 0xe2, 0x5e, 0x75, 0x3d, 0x17, 0x10, 0xb1, 0x3d,
  0xce, 0xc5, 0x32, 0xbe, 0x9b, 0x2d, 0xbc, 0xbd, 0x1f, 0x9c, 0xbc, 0x3d,
  0xa1, 0x6e, 0x50, 0xbd, 0x00, 0xf7, 0x16, 0xbe, 0x63, 0x00, 0x4c, 0xbd,
  0xf0, 0xfd, 0xdd, 0x3d, 0x6a, 0x05, 0x2a, 0xbe, 0xec, 0xa0, 0xc1, 0xbc,
  0x85, 0x3a, 0x03, 0xbd, 0x07, 0x72, 0x4b, 0xbe, 0x8d, 0x71, 0x90, 0xbd,
  0xb8, 0x4c, 0xc1, 0xbe, 0x07, 0xdf, 0x25, 0x3d, 0x82, 0x7b, 0x0e, 0x3d,
  0xde, 0x96, 0x1a, 0x3e, 0x78, 0x67, 0xe5, 0xbd, 0x2a, 0x4e, 0xc3, 0xbc,
  0xfc, 0x9c, 0x01, 0x3e, 0x1d, 0x23, 0xc0, 0xbd, 0x98, 0x68, 0x55, 0xbb,
  0x7c, 0x83, 0x0c, 0x3e, 0xca, 0x1d, 0x3d, 0x3e, 0x58, 0x7d, 0x1d, 0xbe,
  0x33, 0x0f, 0x48, 0xbc, 0xc0, 0x6b, 0x65, 0x39, 0x1d, 0xbd, 0xc2, 0x3d,
  0x44, 0x57, 0x0b, 0xbe, 0xd1, 0xd6, 0x92, 0xbe, 0xea, 0x62, 0x64, 0x3d,
  0x6f, 0x14, 0x2a, 0x3c, 0xbf, 0xe6, 0xa5, 0x3d, 0xbd, 0x36, 0x63, 0xbc,
  0xaa, 0xd5, 0x35, 0xbe, 0xd6, 0x8d, 0xad, 0x3d, 0xc5, 0xde, 0xc4, 0x3d,
  0x45, 0x76, 0x14, 0xbd, 0x5b, 0xfe, 0x96, 0xbd, 0x01, 0x2b, 0x09, 0x3e,
  0xa7, 0xd7, 0x7b, 0x3d, 0x20, 0x40, 0xc2, 0x3d, 0x78, 0xbb, 0xfb, 0xba,
  0x1b, 0xbe, 0x56, 0xbc, 0xc5, 0x57, 0xfe, 0xbc, 0xe4, 0x4b, 0x81, 0x3d,
  0xf1, 0x61, 0xf4, 0x3d, 0x04, 0xfd, 0x5b, 0x3d, 0x2c, 0x31, 0xe1, 0x3b,
  0xb3, 0xa1, 0x98, 0xbc, 0x72, 0xd3, 0x4c, 0xbe, 0x16, 0x6b, 0x8b, 0x3d,
  0x6c, 0x24, 0x01, 0x3e, 0xae, 0x87, 0x08, 0x3d, 0xf9, 0x40, 0x8f, 0xbd,
  0x5e, 0x27, 0x88, 0x3d, 0x04, 0xc3, 0xb5, 0xbd, 0xd7, 0xd7, 0x02, 0xbd,
  0x65, 0xfe, 0x29, 0xbd, 0x73, 0x56, 0xb2, 0xbe, 0x42, 0xf5, 0xad, 0xba,
  0xf3, 0x4a, 0x69, 0x3e, 0x03, 0x3c, 0xb4, 0x3d, 0x4c, 0x43, 0xb9, 0xbb,
  0xbf, 0x7a, 0x0a, 0x3e, 0xca, 0xaa, 0xa7, 0xbc, 0x78, 0x4c, 0xcf, 0xbd,
  0xf3, 0xb4, 0xef, 0x3d, 0x66, 0x1a, 0x05, 0x3e, 0x1b, 0xe5, 0xe0, 0x3c,
  0xa0, 0x5e, 0x23, 0xbd, 0x62, 0x7b, 0x73, 0x3e, 0x08, 0xa5, 0xf4, 0xbd,
  0xf4, 0xcb, 0x84, 0x3c, 0xe5, 0x68, 0xd2, 0xbd, 0x4c, 0xa5, 0x97, 0xbe,
  0x84, 0xa8, 0x3a, 0x3c, 0x2f, 0xda, 0xac, 0x3d, 0x2d, 0xf0, 0x16, 0x3d,
  0xf5, 0x0b, 0xdb, 0xbd, 0x31, 0x43, 0x54, 0x3e, 0xb6, 0x00, 0x5a, 0xbe,
  0x89, 0x81, 0xcc, 0xbd, 0xdf, 0xa5, 0xec, 0x3d, 0xe0, 0x06, 0x4b, 0x3e,
  0x5a, 0x81, 0x12, 0x3b, 0xf6, 0xc4, 0x2d, 0x3d, 0x8f, 0xa1, 0xab, 0x3d,
  0xfb, 0xf9, 0x15, 0xbe, 0xb7, 0x27, 0xb5, 0x3c, 0xd7, 0x67, 0x73, 0xbc,
  0xf9, 0xd6, 0xb4, 0xbe, 0x70, 0xed, 0x97, 0x3d, 0x76, 0x08, 0x5c, 0x3e,
  0x9c, 0x3b, 0x9d, 0x3d, 0x07, 0xfb, 0xbe, 0xbd, 0x3e, 0xdc, 0xeb, 0x3d,
  0xda, 0x66, 0x15, 0xbe, 0x9a, 0xca, 0x3d, 0xbe, 0x47, 0x56, 0xa4, 0x3d,
  0x46, 0xe0, 0x80, 0x3e, 0xec, 0x60, 0xb6, 0x3b, 0x03, 0x2f, 0x8c, 0x3d,
  0xf6, 0xfc, 0x70, 0x3e, 0x95, 0xef, 0xed, 0xbd, 0x44, 0x24, 0x7b, 0xbb,
  0xae, 0x9b, 0x3a, 0xba, 0x5b, 0xe8, 0xd8, 0xbe, 0x17, 0x05, 0xaa, 0x3e,
  0x94, 0xb5, 0x7f, 0x3e, 0x47, 0xa2, 0x45, 0x3c, 0x90, 0xb5, 0x8d, 0xbe,
  0x52, 0xe3, 0x49, 0x3e, 0xd8, 0x4b, 0x51, 0xbe, 0xa5, 0x5b, 0x16, 0xbe,
  0xc6, 0x7f, 0x28, 0xbd, 0x61, 0x7b, 0x03, 0x3e, 0x80, 0x46, 0x37, 0xbe,
  0x53, 0x13, 0xa8, 0x3d, 0x48, 0x82, 0x81, 0xbe, 0xd2, 0x48, 0x78, 0xbe,
  0x49, 0x95, 0xfa, 0x3b, 0xc4, 0xe2, 0xe8, 0xbd, 0x33, 0xbe, 0xa8, 0xbe,
  0x63, 0x35, 0xb6, 0xbc, 0x72, 0x9f, 0x0d, 0xbe, 0x2c, 0x8f, 0x80, 0xbc,
  0x91, 0x54, 0xd9, 0xbe, 0x37, 0xc1, 0x89, 0x3e, 0x4d, 0xf0, 0xb4, 0xbe,
  0x73, 0x6e, 0x61, 0xbe, 0xab, 0x38, 0xb7, 0xbb, 0xee, 0x52, 0xa7, 0xbe,
  0xc5, 0xaa, 0xdb, 0xbd, 0xa1, 0x67, 0x85, 0xbd, 0xae, 0x92, 0x02, 0xbf,
  0x18, 0x56, 0x80, 0x3e, 0x9b, 0xfc, 0x3f, 0x3d, 0x8d, 0x31, 0x3a, 0xbe,
  0x43, 0xfa, 0x87, 0xbe, 0x4a, 0xf3, 0x28, 0xbe, 0xba, 0x6f, 0xb8, 0xbe,
  0x67, 0xb4, 0x81, 0x3e, 0xf0, 0xa7, 0xc7, 0xbe, 0x4b, 0x0c, 0x70, 0xbe,
  0xda, 0xfe, 0xdc, 0x3d, 0x14, 0x05, 0xc7, 0xbd, 0x21, 0x00, 0xe7, 0x3e,
  0x6d, 0x8f, 0x01, 0xbd, 0x0a, 0xd4, 0x73, 0x3c, 0x5d, 0xf6, 0x8d, 0xbe,
  0xb0, 0x21, 0x8d, 0x3e, 0xc3, 0x6a, 0x34, 0xbf, 0x3c, 0x81, 0x3c, 0x3d,
  0x45, 0xce, 0x77, 0x3d, 0x15, 0xd7, 0xfd, 0x3e, 0x29, 0x80, 0xc8, 0xbe,
  0x73, 0x21, 0x06, 0x3e, 0xbd, 0x95, 0xe2, 0xbc, 0xc6, 0x1f, 0x41, 0x3e,
  0x5c, 0xc6, 0x44, 0x3d, 0xc2, 0xae, 0x0b, 0x3e, 0x1a, 0xbd, 0x06, 0xbe,
  0xe3, 0x08, 0x2c, 0x3d, 0x2f, 0xd3, 0x04, 0x3c, 0x24, 0x0f, 0x0a, 0xbd,
  0xd0, 0x8d, 0x96, 0xbd, 0x03, 0x3b, 0x95, 0x3e, 0x21, 0x91, 0x17, 0xbe,
  0xb3, 0x39, 0xf9, 0x3d, 0x3d, 0x12, 0x6c, 0x3e, 0xef, 0x8f, 0x35, 0x3d,
  0x5b, 0x24, 0x49, 0xbe, 0x27, 0x54, 0xdf, 0x3d, 0x92, 0x61, 0x06, 0x3e,
  0x86, 0xb9, 0xc0, 0xbc, 0xd8, 0xcf, 0x5d, 0xbc, 0x78, 0x76, 0x0a, 0x3e,
  0x69, 0x01, 0x8b, 0xbe, 0xae, 0xaa, 0x6d, 0x3d, 0x14, 0x7d, 0x9f, 0x3c,
  0xbc, 0x02, 0x45, 0xbe, 0xa6, 0x56, 0xb1, 0xbb, 0x37, 0x27, 0x88, 0x3e,
  0x16, 0xd5, 0xb4, 0xbd, 0xf2, 0xf1, 0x1c, 0x3e, 0x63, 0x5f, 0xa9, 0x3e,
  0xfe, 0x79, 0x52, 0x3d, 0xb3, 0x36, 0x91, 0xbd, 0x6e, 0xce, 0x5e, 0x3e,
  0xe8, 0xee, 0xa2, 0xbc, 0x94, 0x49, 0x36, 0xbe, 0xae, 0x7f, 0xa6, 0x3d,
  0x15, 0x88, 0xca, 0x3d, 0xda, 0x93, 0xc7, 0xbe, 0xc9, 0x8a, 0x20, 0x3e,
  0x48, 0x70, 0x0e, 0xbe, 0x39, 0xa5, 0x90, 0xbd, 0xc6, 0x57, 0x4e, 0xbd,
  0x17, 0xcd, 0x3d, 0x3d, 0xb4, 0xb2, 0x96, 0xbd, 0x9a, 0xbc, 0xca, 0x3d,
  0xfc, 0xa4, 0xda, 0x3d, 0x05, 0x66, 0x07, 0xbe, 0x03, 0x26, 0x7d, 0xbd,
  0x94, 0x20, 0xa7, 0x3e, 0x1d, 0xce, 0xc8, 0xbd, 0x7c, 0x35, 0x61, 0xbe,
  0xfa, 0xac, 0x13, 0x3d, 0x92, 0x74, 0x4c, 0xbd, 0xf9, 0x04, 0x7c, 0xbe,
  0x6f, 0x7c, 0xc4, 0x3d, 0x1c, 0xd4, 0x1a, 0xbe, 0xd8, 0x2d, 0x7f, 0xbc,
  0xae, 0xea, 0x5a, 0x3e, 0x14, 0xb9, 0xd1, 0x3c, 0xac, 0xe1, 0xe3, 0x3c,
  0xbf, 0x35, 0x14, 0x3e, 0x81, 0xd8, 0x82, 0xbd, 0x4d, 0xb7, 0x32, 0xbe,
  0x9f, 0x53, 0x8e, 0x3e, 0x73, 0x5c, 0xc4, 0x3d, 0x8c, 0x82, 0x8d, 0xbd,
  0x32, 0xd2, 0x62, 0xbe, 0x41, 0x7a, 0x50, 0x3d, 0x34, 0x06, 0x12, 0xbd,
  0x47, 0xb1, 0xc3, 0xbc, 0xca, 0xbe, 0x16, 0x3e, 0x66, 0x03, 0xb0, 0x3e,
  0x79, 0x81, 0x08, 0xbe, 0xf9, 0xfb, 0x79, 0x3e, 0x51, 0xa2, 0x93, 0x3e,
  0x4e, 0x5b, 0x06, 0x3e, 0x09, 0x81, 0xad, 0x3d, 0x46, 0xf3, 0x97, 0xbe,
  0x4a, 0x42, 0xe2, 0xbd, 0xe3, 0xa5, 0x6a, 0x3d, 0xa6, 0xba, 0xd8, 0x3d,
  0x0c, 0x04, 0x77, 0xbc, 0xcd, 0x75, 0xde, 0xbe, 0xd2, 0x38, 0x70, 0x3e,
  0xe0, 0x0d, 0xb9, 0x3d, 0x1c, 0xe9, 0xef, 0x3d, 0xf1, 0x1b, 0x88, 0xbd,
  0xa6, 0x54, 0xcd, 0x3c, 0xe7, 0xd8, 0x34, 0x3c, 0xbb, 0xcc, 0xe1, 0x3d,
  0x37, 0x0f, 0x30, 0xbb, 0x7f, 0x65, 0x44, 0x3e, 0x9b, 0x3d, 0x73, 0x3d,
  0x16, 0xd5, 0x0b, 0xbe, 0x01, 0x5e, 0x0b, 0xbf, 0x74, 0x2c, 0x80, 0x3e,
  0x33, 0x98, 0x19, 0x3e, 0xa5, 0xd6, 0x43, 0x3d, 0x03, 0x44, 0x0a, 0xbf,
  0x58, 0xe0, 0x33, 0x3c, 0xed, 0xf7, 0x8b, 0x3d, 0xa1, 0x82, 0xef, 0x3d,
  0xeb, 0xdf, 0x10, 0xbe, 0x60, 0x91, 0xee, 0xbe, 0xb9, 0x0e, 0x64, 0xbd,
  0x62, 0x77, 0xbe, 0xbd, 0x21, 0x3b, 0x0e, 0xbf, 0x1b, 0x00, 0x3a, 0x3d,
  0x6c, 0xd6, 0xea, 0x3d, 0x14, 0x80, 0x12, 0xbe, 0x18, 0x71, 0xe1, 0xbe,
  0x00, 0x8f, 0xe2, 0xbd, 0xb7, 0x58, 0x2e, 0xbd, 0x35, 0xef, 0x10, 0xbe,
  0xa3, 0x13, 0x99, 0xbe, 0xb5, 0x01, 0xc8, 0x3d, 0x07, 0x81, 0x9a, 0xbe,
  0xf4, 0x36, 0xa9, 0x3d, 0xec, 0x09, 0x1f, 0xbc, 0x9e, 0x73, 0xa3, 0xbe,
  0xfb, 0xf1, 0xcf, 0xbd, 0xeb, 0xca, 0x0f, 0x3d, 0x46, 0x6f, 0x5d, 0xbe,
  0xa8, 0xdd, 0x82, 0xbc, 0xd4, 0x10, 0x73, 0x3d, 0x74, 0x6c, 0x96, 0xbe,
  0xa6, 0x95, 0x9a, 0xbe, 0xc8, 0xf4, 0xb7, 0xbd, 0x1e, 0x46, 0xc3, 0xbd,
  0x61, 0x61, 0x83, 0x3c, 0x01, 0x63, 0x06, 0xbf, 0xcf, 0x92, 0x90, 0xbd,
  0x8d, 0x15, 0x9e, 0xbe, 0x35, 0xa6, 0x7e, 0xbd, 0x58, 0x48, 0xc1, 0xbd,
  0x8d, 0xf4, 0xb7, 0xbe, 0xd9, 0x00, 0x2f, 0x3d, 0xca, 0x63, 0x36, 0x3e,
  0xd6, 0x38, 0xd4, 0xbe, 0xf1, 0x20, 0x13, 0x3d, 0x91, 0x48, 0x0f, 0xbe,
  0x2d, 0xe4, 0xa9, 0xbe, 0x55, 0x75, 0x5e, 0xbe, 0xc5, 0x42, 0xf5, 0x3c,
  0x5b, 0xaf, 0xd6, 0xbd, 0x38, 0xf0, 0x3c, 0x3d, 0x2a, 0x63, 0x7d, 0xbe,
  0x2c, 0xda, 0x85, 0xbe, 0xb2, 0x2c, 0xc2, 0x3c, 0xaf, 0xbc, 0xbc, 0x3d,
  0x52, 0x56, 0xa6, 0xbd, 0x28, 0x18, 0x82, 0xbe, 0xd8, 0xc2, 0xf0, 0xbd,
  0x99, 0xd2, 0x9b, 0xbd, 0x33, 0xc1, 0x79, 0xbe, 0x90, 0xc5, 0x00, 0xbd,
  0xe3, 0x81, 0xea, 0xbd, 0x53, 0x91, 0x67, 0xbe, 0x4e, 0x5a, 0x9e, 0xbd,
  0xc1, 0xaa, 0x29, 0xbd, 0x9c, 0xee, 0xcd, 0xbd, 0x64, 0xc8, 0x23, 0xbd,
  0x55, 0x57, 0xc0, 0xbe, 0x00, 0x3d, 0xa1, 0xbe, 0xdb, 0xa2, 0xe6, 0xbe,
  0xcf, 0x66, 0x2a, 0xbd, 0xa2, 0x42, 0xa8, 0xbe, 0x60, 0xa1, 0x57, 0xbe,
  0x85, 0x70, 0x93, 0xbd, 0xea, 0x6f, 0x41, 0xbe, 0x2f, 0x3f, 0xf2, 0xbe,
  0xd1, 0x42, 0x91, 0x3c, 0xaf, 0xdc, 0x04, 0xbe, 0xdc, 0x94, 0x8d, 0xbe,
  0x21, 0x11, 0xd4, 0xbb, 0x3f, 0x82, 0x0f, 0x3e, 0x25, 0xf6, 0xf1, 0x3d,
  0xa2, 0x00, 0x12, 0xbd, 0x44, 0xff, 0x03, 0xbf, 0x80, 0xbd, 0x86, 0xbd,
  0x3e, 0xc7, 0x1e, 0xbe, 0xd6, 0x29, 0x7f, 0x3d, 0x28, 0xea, 0x84, 0xbe,
  0x75, 0x9d, 0xdf, 0xbe, 0xb7, 0x60, 0x80, 0xbd, 0x03, 0x76, 0x6a, 0xbd,
  0x70, 0x28, 0xbf, 0xbe, 0x20, 0x07, 0x24, 0x3e, 0xb9, 0xae, 0x0b, 0x3b,
  0x53, 0x67, 0x22, 0xbe, 0x58, 0x77, 0x02, 0xbf, 0x61, 0xd0, 0x44, 0x3d,
  0xa6, 0x65, 0xc6, 0x3d, 0xdf, 0xe4, 0x11, 0x3e, 0x02, 0x30, 0x34, 0xbf,
  0x87, 0x33, 0x38, 0xbe, 0x8a, 0x1b, 0x41, 0x3d, 0x31, 0xf0, 0x0d, 0x3e,
  0xe3, 0xba, 0x1a, 0xbe, 0xce, 0xde, 0x43, 0xbe, 0xe9, 0x78, 0x96, 0x3b,
  0xb5, 0xb7, 0xe4, 0xbd, 0xce, 0xc1, 0xe1, 0xbe, 0xa8, 0x2b, 0x7c, 0x3e,
  0xcc, 0xb2, 0x0d, 0x3d, 0xe8, 0xb0, 0x54, 0xbe, 0x89, 0x0c, 0xf1, 0xbd,
  0x60, 0x3f, 0x7d, 0xbe, 0xd7, 0xca, 0x3e, 0x3e, 0x0c, 0x2f, 0x87, 0x3e,
  0x53, 0x56, 0x06, 0xbf, 0x57, 0x38, 0x9e, 0xbe, 0x75, 0xce, 0xcc, 0x3c,
  0xcf, 0xf5, 0x98, 0x3d, 0xcb, 0x53, 0xd5, 0xbd, 0x6f, 0xf7, 0x64, 0xbe,
  0xb9, 0x05, 0xb8, 0xbe, 0x85, 0xd8, 0x02, 0xbf, 0x7e, 0x98, 0x40, 0xbe,
  0xd0, 0xa6, 0xe9, 0xbd, 0x4d, 0xd3, 0x91, 0x3d, 0x71, 0x14, 0xa2, 0xbd,
  0x89, 0xfe, 0x5e, 0x3e, 0x8b, 0xd2, 0xe7, 0x3e, 0xeb, 0x41, 0x74, 0xbd,
  0xb2, 0xb7, 0x45, 0xbd, 0xc0, 0x29, 0x15, 0x3d, 0x61, 0x69, 0xbf, 0xbe,
  0x8f, 0xbe, 0x80, 0xbe, 0x91, 0xc8, 0xfc, 0xbe, 0x96, 0x5e, 0xdd, 0xbe,
  0x26, 0xa8, 0x82, 0xbe, 0x8b, 0x84, 0x69, 0xbf, 0x59, 0x3d, 0x18, 0xbf,
  0x60, 0xd7, 0x7f, 0xbe, 0xc5, 0xa1, 0x25, 0xbf, 0x28, 0x0a, 0x0b, 0xbf,
  0xba, 0x00, 0x45, 0xbd, 0xf8, 0xe3, 0xb1, 0x3c, 0x69, 0xf6, 0xde, 0x3e,
  0x1f, 0x2c, 0x6d, 0x3c, 0x05, 0xc7, 0x0e, 0xbf, 0xae, 0x1c, 0x05, 0x3d,
  0x68, 0x37, 0xa8, 0xbe, 0xc4, 0xb7, 0xe1, 0xbe, 0x73, 0x16, 0x32, 0xbf,
  0x9d, 0xe2, 0x17, 0xbf, 0x0a, 0xc7, 0x9b, 0x3c, 0x07, 0x34, 0x1b, 0xbf,
  0xb1, 0xb3, 0x2e, 0xbf, 0x20, 0x12, 0x59, 0x3d, 0x9e, 0x8d, 0xd8, 0xbe,
  0x19, 0xf1, 0xb6, 0xbe, 0x2e, 0x36, 0xca, 0xbd, 0x3e, 0x94, 0xab, 0xbd,
  0xbf, 0x88, 0x3e, 0x3e, 0x03, 0x00, 0xa5, 0xbd, 0xae, 0xcf, 0x27, 0xbf,
  0x32, 0x6d, 0x4d, 0x3d, 0x75, 0x03, 0x1f, 0xbe, 0x0e, 0xd7, 0x05, 0xbf,
  0xc0, 0xc1, 0xdc, 0x3c, 0x08, 0xcd, 0x93, 0xbe, 0xfb, 0x6c, 0xd4, 0xbd,
  0x32, 0xae, 0x91, 0xbe, 0x29, 0x5c, 0x32, 0xbf, 0x88, 0x26, 0x7c, 0x3e,
  0xac, 0xfa, 0x78, 0xbd, 0xd1, 0xee, 0x5e, 0xbe, 0xb6, 0x77, 0xd7, 0xbc,
  0xda, 0xdb, 0x37, 0xbd, 0xa8, 0x29, 0x3c, 0x3e, 0xb3, 0xea, 0xaf, 0xbe,
  0x64, 0x67, 0x0d, 0x3e, 0x4d, 0xe5, 0xe3, 0x3b, 0x29, 0x36, 0x21, 0x3d,
  0x6b, 0xb6, 0x35, 0x3d, 0x8d, 0x49, 0x62, 0x3e, 0xbb, 0xb5, 0x1c, 0xbd,
  0x5a, 0x56, 0x2f, 0xbd, 0x37, 0x59, 0x06, 0xbe, 0xbd, 0xd0, 0x89, 0xbc,
  0x89, 0x3d, 0x33, 0xbd, 0x7d, 0x20, 0x41, 0xbd, 0xce, 0x8d, 0x92, 0xbd,
  0x55, 0xc3, 0x72, 0xbc, 0xf3, 0x6f, 0x3f, 0x3d, 0xdb, 0xb0, 0xcc, 0xbd,
  0x71, 0x1e, 0x46, 0x3d, 0x63, 0x68, 0xa6, 0xbe, 0x0a, 0xc9, 0x57, 0x3d,
  0x52, 0x04, 0x5e, 0x3d, 0x46, 0x14, 0x8a, 0xbe, 0x16, 0xe3, 0x96, 0x3d,
  0x40, 0xff, 0x0a, 0xbd, 0xe8, 0x9a, 0x30, 0x3c, 0x23, 0xa6, 0xfb, 0x3d,
  0x67, 0xbd, 0xde, 0x3d, 0xa0, 0x51, 0x82, 0x3e, 0xc0, 0x05, 0x05, 0xbe,
  0x41, 0x7b, 0x99, 0xbd, 0xb7, 0x01, 0xc8, 0xbc, 0xa5, 0xf7, 0x8b, 0xbd,
  0xa7, 0x0e, 0x27, 0x3e, 0x4c, 0xa6, 0x09, 0xbe, 0x5a, 0x95, 0x93, 0xbd,
  0x04, 0x39, 0xba, 0x3c, 0x20, 0x9e, 0x89, 0x3d, 0x10, 0x56, 0x27, 0xbd,
  0x08, 0x92, 0x66, 0x3e, 0xf1, 0x71, 0x39, 0xbd, 0x86, 0x62, 0xaa, 0xbc,
  0x0d, 0x5d, 0x11, 0x3e, 0xda, 0xc7, 0xb8, 0x3c, 0x8a, 0x9a, 0x4f, 0x3e,
  0x0c, 0x20, 0xa7, 0xbe, 0x6d, 0xba, 0xaf, 0xbd, 0xd0, 0x8d, 0xa5, 0xbd,
  0x94, 0x27, 0xfd, 0x3d, 0x66, 0x18, 0x22, 0xbd, 0x6d, 0x7f, 0x6c, 0xbe,
  0xaf, 0xac, 0xb0, 0xbd, 0xf0, 0xb1, 0x88, 0xbd, 0x5a, 0x9a, 0x16, 0x3d,
  0x2d, 0xe9, 0xea, 0x3d, 0xd8, 0x6f, 0x26, 0x3e, 0xc4, 0x7c, 0xcf, 0xbd,
